<unk>	0
<s>	0
</s>	0
<pad>	0
he	-0
▁a	-1
▁t	-2
▁i	-3
re	-4
▁the	-5
▁o	-6
▁s	-7
▁b	-8
in	-9
▁is	-10
▁w	-11
▁T	-12
▁The	-13
nd	-14
ing	-15
it	-16
▁c	-17
▁p	-18
ar	-19
▁on	-20
le	-21
▁h	-22
an	-23
▁of	-24
▁and	-25
er	-26
ro	-27
▁are	-28
▁f	-29
at	-30
ck	-31
▁in	-32
lo	-33
en	-34
▁g	-35
as	-36
▁m	-37
▁There	-38
al	-39
es	-40
▁d	-41
▁bl	-42
ack	-43
▁to	-44
▁wh	-45
ite	-46
▁white	-47
ir	-48
▁A	-49
▁st	-50
▁l	-51
▁be	-52
or	-53
is	-54
ig	-55
▁wit	-56
▁with	-57
▁co	-58
ed	-59
id	-60
et	-61
ld	-62
ear	-63
all	-64
om	-65
▁has	-66
▁black	-67
ra	-68
and	-69
▁sh	-70
ts	-71
ge	-72
▁n	-73
▁man	-74
ind	-75
igh	-76
red	-77
ow	-78
und	-79
ot	-80
▁bu	-81
on	-82
ve	-83
ide	-84
her	-85
nt	-86
ue	-87
ad	-88
▁th	-89
▁it	-90
▁wear	-91
ight	-92
▁pl	-93
▁blue	-94
▁wearing	-95
round	-96
ic	-97
el	-98
▁fro	-99
ur	-100
▁gre	-101
lding	-102
ver	-103
row	-104
ting	-105
▁lo	-106
▁r	-107
hind	-108
il	-109
▁ta	-110
ce	-111
▁sit	-112
▁sk	-113
▁le	-114
ble	-115
ers	-116
ay	-117
▁red	-118
▁stand	-119
▁green	-120
ch	-121
▁e	-122
wo	-123
ass	-124
low	-125
ou	-126
op	-127
rown	-128
oo	-129
irt	-130
▁se	-131
▁brown	-132
▁behind	-133
▁an	-134
ard	-135
▁y	-136
▁front	-137
▁ro	-138
▁side	-139
▁standing	-140
ark	-141
▁tre	-142
▁sitting	-143
bo	-144
▁bo	-145
▁top	-146
▁that	-147
▁u	-148
▁H	-149
▁clo	-150
ilding	-151
▁table	-152
▁sm	-153
▁lar	-154
▁back	-155
▁building	-156
▁he	-157
ood	-158
▁ha	-159
ain	-160
▁large	-161
▁wom	-162
ng	-163
▁at	-164
ll	-165
▁tra	-166
ri	-167
st	-168
▁his	-169
▁wall	-170
▁there	-171
▁wat	-172
xt	-173
▁pe	-174
▁I	-175
▁two	-176
▁O	-177
▁ne	-178
▁colo	-179
king	-180
ate	-181
ople	-182
▁shirt	-183
ie	-184
▁woman	-185
▁do	-186
ellow	-187
▁yellow	-188
▁trees	-189
▁S	-190
ut	-191
▁ho	-192
ome	-193
▁people	-194
▁gr	-195
ff	-196
▁po	-197
am	-198
▁On	-199
ly	-200
ther	-201
▁j	-202
▁small	-203
▁water	-204
ap	-205
▁He	-206
▁tr	-207
se	-208
▁su	-209
▁car	-210
▁re	-211
▁grass	-212
▁sky	-213
▁ch	-214
▁stre	-215
▁v	-216
▁other	-217
▁train	-218
im	-219
▁B	-220
ls	-221
ign	-222
les	-223
▁gra	-224
▁wood	-225
ft	-226
▁k	-227
ran	-228
▁next	-229
pp	-230
▁color	-231
▁street	-232
▁right	-233
▁holding	-234
▁can	-235
▁light	-236
ion	-237
▁hand	-238
age	-239
ure	-240
ile	-241
▁loo	-242
▁bus	-243
▁left	-244
▁wind	-245
ke	-246
ct	-247
▁Th	-248
▁sign	-249
▁dark	-250
che	-251
▁some	-252
▁one	-253
▁window	-254
▁up	-255
board	-256
ants	-257
own	-258
lso	-259
ud	-260
erson	-261
ground	-262
▁person	-263
ink	-264
▁her	-265
▁gir	-266
▁sn	-267
▁gray	-268
▁also	-269
▁shor	-270
▁them	-271
lass	-272
▁bot	-273
eb	-274
▁ground	-275
ss	-276
▁park	-277
ent	-278
▁seen	-279
▁from	-280
▁have	-281
▁sur	-282
▁background	-283
ves	-284
air	-285
▁ph	-286
▁near	-287
▁as	-288
▁down	-289
▁dis	-290
bove	-291
ield	-292
mp	-293
▁plate	-294
▁oran	-295
▁fen	-296
▁This	-297
▁snow	-298
▁dog	-299
▁wooden	-300
ire	-301
ang	-302
▁cloud	-303
ph	-304
ul	-305
▁pic	-306
▁It	-307
▁Two	-308
▁fo	-309
ture	-310
▁field	-311
▁cat	-312
ach	-313
ks	-314
acket	-315
▁long	-316
▁orange	-317
▁by	-318
▁plan	-319
▁above	-320
▁over	-321
▁fence	-322
▁wal	-323
▁picture	-324
▁glass	-325
▁cou	-326
▁hair	-327
▁head	-328
very	-329
▁im	-330
▁image	-331
▁ba	-332
mb	-333
▁tall	-334
▁hor	-335
▁out	-336
ted	-337
▁app	-338
ade	-339
uts	-340
▁She	-341
▁tow	-342
▁very	-343
▁she	-344
▁sp	-345
▁pi	-346
▁und	-347
▁br	-348
▁ele	-349
▁tru	-350
ree	-351
▁around	-352
▁One	-353
▁des	-354
ace	-355
▁pants	-356
▁under	-357
▁sil	-358
▁room	-359
▁bas	-360
▁sun	-361
▁flo	-362
▁play	-363
▁road	-364
▁ten	-365
ffe	-366
▁air	-367
▁for	-368
▁boy	-369
▁Be	-370
oto	-371
▁silver	-372
▁In	-373
▁photo	-374
rip	-375
▁ben	-376
▁met	-377
▁They	-378
nis	-379
▁all	-380
ine	-381
▁go	-382
one	-383
▁hang	-384
ance	-385
ath	-386
▁eleph	-387
▁looking	-388
▁fe	-389
▁day	-390
▁tennis	-391
▁bed	-392
▁mou	-393
▁strip	-394
▁li	-395
ant	-396
▁made	-397
▁chair	-398
ug	-399
ast	-400
▁walking	-401
ears	-402
cks	-403
aves	-404
▁bott	-405
▁sc	-406
sh	-407
▁parked	-408
▁many	-409
▁metal	-410
▁z	-411
utside	-412
▁ca	-413
ntain	-414
art	-415
other	-416
ell	-417
▁bear	-418
▁dist	-419
zz	-420
▁men	-421
▁Behind	-422
▁mo	-423
▁tree	-424
▁floor	-425
em	-426
side	-427
▁outside	-428
ep	-429
▁toile	-430
▁him	-431
▁distance	-432
▁plane	-433
▁jacket	-434
▁ra	-435
▁track	-436
urt	-437
▁gira	-438
yc	-439
wal	-440
▁so	-441
▁grey	-442
▁toilet	-443
▁hanging	-444
▁surf	-445
ter	-446
▁ski	-447
▁mot	-448
▁pizz	-449
▁door	-450
for	-451
▁sidewal	-452
▁tan	-453
▁clock	-454
ru	-455
th	-456
way	-457
▁bench	-458
itt	-459
▁you	-460
▁P	-461
ich	-462
▁short	-463
▁its	-464
vered	-465
▁off	-466
▁pain	-467
▁zeb	-468
ights	-469
▁clouds	-470
▁dirt	-471
▁sand	-472
▁skate	-473
▁truck	-474
▁pizza	-475
▁sidewalk	-476
▁sits	-477
▁covered	-478
▁ar	-479
▁motor	-480
▁windows	-481
▁no	-482
▁but	-483
ill	-484
iling	-485
▁their	-486
▁shorts	-487
ses	-488
▁cle	-489
▁area	-490
▁buildings	-491
form	-492
▁pole	-493
▁pink	-494
▁inside	-495
up	-496
ry	-497
cyc	-498
dle	-499
ird	-500
pen	-501
▁sl	-502
▁bright	-503
▁plat	-504
ched	-505
▁te	-506
▁motorcyc	-507
ne	-508
▁vis	-509
ans	-510
ase	-511
▁cars	-512
▁three	-513
dy	-514
▁wr	-515
▁boat	-516
▁food	-517
▁mid	-518
▁tracks	-519
ac	-520
pl	-521
▁hat	-522
un	-523
▁appears	-524
▁skateboard	-525
▁An	-526
▁rid	-527
▁tak	-528
▁open	-529
▁fl	-530
veral	-531
led	-532
ple	-533
ible	-534
ick	-535
ress	-536
▁colored	-537
lm	-538
▁count	-539
qu	-540
ust	-541
eball	-542
▁another	-543
▁baseball	-544
ross	-545
▁leaves	-546
▁elephant	-547
▁girl	-548
rell	-549
▁lights	-550
top	-551
▁bird	-552
▁lin	-553
▁visible	-554
▁umb	-555
▁desk	-556
▁umbrell	-557
ving	-558
▁looks	-559
▁painted	-560
room	-561
▁horse	-562
▁cam	-563
te	-564
▁bow	-565
oth	-566
▁alo	-567
▁flow	-568
▁or	-569
▁surround	-570
▁middle	-571
▁counter	-572
▁sho	-573
▁ball	-574
▁both	-575
▁taken	-576
ny	-577
▁lap	-578
we	-579
▁camer	-580
▁court	-581
▁ref	-582
gs	-583
▁bri	-584
▁kit	-585
▁suit	-586
co	-587
▁camera	-588
ame	-589
▁con	-590
▁N	-591
▁bottom	-592
ta	-593
lmet	-594
▁sle	-595
▁well	-596
▁board	-597
▁helmet	-598
▁ey	-599
to	-600
▁je	-601
▁litt	-602
▁face	-603
▁cow	-604
▁clear	-605
▁big	-606
▁whe	-607
▁dress	-608
▁sunny	-609
▁little	-610
▁like	-611
▁sink	-612
▁ve	-613
ation	-614
▁bi	-615
ler	-616
▁de	-617
um	-618
eside	-619
▁mountain	-620
▁F	-621
▁show	-622
▁along	-623
ak	-624
▁young	-625
hes	-626
▁hands	-627
▁lot	-628
ction	-629
▁toward	-630
▁giraffe	-631
pe	-632
▁pur	-633
▁pie	-634
▁which	-635
▁several	-636
ches	-637
▁cor	-638
▁bath	-639
▁riding	-640
▁see	-641
iting	-642
ni	-643
ching	-644
▁comp	-645
ets	-646
ner	-647
▁che	-648
▁motorcycle	-649
▁while	-650
be	-651
▁wa	-652
▁run	-653
▁beach	-654
▁zebra	-655
▁part	-656
get	-657
ating	-658
▁laptop	-659
ings	-660
▁di	-661
▁Some	-662
▁pa	-663
▁blo	-664
au	-665
ris	-666
▁bag	-667
▁brick	-668
▁slee	-669
▁walls	-670
▁arm	-671
▁hou	-672
▁pap	-673
▁pro	-674
▁bowl	-675
▁jeans	-676
▁they	-677
▁M	-678
▁en	-679
▁each	-680
ity	-681
▁His	-682
▁seat	-683
ag	-684
▁ban	-685
tached	-686
▁glasses	-687
ugh	-688
▁lay	-689
▁pat	-690
als	-691
li	-692
umb	-693
▁few	-694
▁let	-695
▁old	-696
▁anim	-697
ice	-698
▁attached	-699
ems	-700
are	-701
▁umbrella	-702
ort	-703
▁flowers	-704
▁sto	-705
▁shel	-706
▁poles	-707
▁ac	-708
chen	-709
▁not	-710
▁body	-711
▁gold	-712
▁into	-713
irro	-714
▁shad	-715
▁W	-716
▁box	-717
irror	-718
▁eyes	-719
▁kitchen	-720
▁C	-721
rent	-722
▁mirror	-723
▁playing	-724
rough	-725
ty	-726
ous	-727
▁boo	-728
▁wor	-729
▁bathroom	-730
▁cut	-731
▁player	-732
uff	-733
▁bat	-734
▁fire	-735
▁cloudy	-736
▁purple	-737
els	-738
▁stands	-739
▁towards	-740
by	-741
▁numb	-742
▁phone	-743
▁surfboard	-744
▁cap	-745
▁cake	-746
▁lines	-747
▁"	-748
▁ag	-749
ved	-750
▁vase	-751
▁signs	-752
ull	-753
▁round	-754
▁racket	-755
▁platform	-756
out	-757
reen	-758
▁beside	-759
ane	-760
rant	-761
▁cab	-762
ild	-763
ning	-764
▁com	-765
▁fly	-766
risbe	-767
▁this	-768
ful	-769
▁bun	-770
▁Both	-771
▁laying	-772
▁through	-773
ext	-774
▁dri	-775
▁paper	-776
risbee	-777
▁writing	-778
▁again	-779
▁line	-780
▁shoes	-781
▁sleeve	-782
ors	-783
ram	-784
▁striped	-785
▁corner	-786
▁against	-787
yd	-788
▁sw	-789
ween	-790
ffes	-791
▁hyd	-792
▁neck	-793
▁ad	-794
ated	-795
▁tur	-796
▁four	-797
▁hydrant	-798
ult	-799
ides	-800
▁set	-801
▁Next	-802
▁bike	-803
▁shin	-804
▁refle	-805
ras	-806
▁couch	-807
fferent	-808
ters	-809
▁flying	-810
▁stripes	-811
▁giraffes	-812
▁elephants	-813
ub	-814
▁bet	-815
▁most	-816
▁across	-817
▁horses	-818
▁contain	-819
ip	-820
us	-821
▁squ	-822
▁between	-823
▁fram	-824
▁cabin	-825
ush	-826
▁me	-827
▁fore	-828
▁hill	-829
▁sheep	-830
▁fac	-831
▁was	-832
▁design	-833
▁shadow	-834
ular	-835
▁tail	-836
▁Three	-837
▁below	-838
▁chairs	-839
ish	-840
▁dire	-841
▁airpl	-842
▁cover	-843
uter	-844
▁different	-845
ey	-846
▁child	-847
▁tower	-848
ive	-849
▁women	-850
ime	-851
▁cur	-852
ather	-853
▁city	-854
ket	-855
read	-856
▁glo	-857
▁house	-858
▁cup	-859
▁gro	-860
▁lam	-861
▁tri	-862
▁stra	-863
▁watching	-864
▁plates	-865
▁shap	-866
▁banan	-867
enter	-868
▁baby	-869
▁stop	-870
ige	-871
▁roo	-872
▁computer	-873
gg	-874
The	-875
sed	-876
▁TH	-877
aller	-878
ces	-879
▁uni	-880
▁game	-881
▁airplane	-882
ned	-883
ven	-884
▁bar	-885
▁tie	-886
▁plast	-887
▁eating	-888
▁ed	-889
▁emp	-890
▁ma	-891
shirt	-892
▁kite	-893
▁sides	-894
▁plastic	-895
ffic	-896
▁roof	-897
▁beige	-898
ady	-899
▁ce	-900
▁sandw	-901
ally	-902
ying	-903
▁fur	-904
▁smiling	-905
clo	-906
irc	-907
idge	-908
▁being	-909
▁group	-910
▁rocks	-911
▁zebras	-912
af	-913
ash	-914
cher	-915
less	-916
▁bunch	-917
▁bushes	-918
▁dressed	-919
▁uniform	-920
hic	-921
▁la	-922
▁legs	-923
lasses	-924
▁empty	-925
▁piece	-926
▁waves	-927
▁ceiling	-928
▁L	-929
▁pre	-930
▁circ	-931
▁feet	-932
▁grassy	-933
▁mostly	-934
▁center	-935
▁traffic	-936
cre	-937
▁ab	-938
▁ob	-939
▁wire	-940
▁blond	-941
▁shelf	-942
ays	-943
▁far	-944
▁wet	-945
▁high	-946
▁square	-947
▁colorful	-948
iz	-949
est	-950
▁To	-951
▁ti	-952
ious	-953
illed	-954
▁bottle	-955
je	-956
eth	-957
▁sau	-958
▁spo	-959
▁poin	-960
▁tele	-961
▁parking	-962
ump	-963
▁ri	-964
crete	-965
▁lamp	-966
▁vehic	-967
ton	-968
ater	-969
ator	-970
▁hot	-971
illow	-972
▁just	-973
▁nose	-974
▁rock	-975
gether	-976
▁Pe	-977
▁coat	-978
▁items	-979
▁frisbee	-980
▁concrete	-981
▁together	-982
alm	-983
ger	-984
▁ste	-985
▁cloth	-986
▁where	-987
▁sandwich	-988
ese	-989
▁Part	-990
▁pillow	-991
vel	-992
▁look	-993
▁pair	-994
▁screen	-995
rin	-996
▁wave	-997
▁People	-998
▁surrounding	-999
able	-1000
▁dra	-1001
alf	-1002
▁curt	-1003
▁rest	-1004
▁skis	-1005
▁curtain	-1006
fe	-1007
ist	-1008
ment	-1009
ruit	-1010
▁boats	-1011
▁mouth	-1012
▁filled	-1013
▁letters	-1014
▁Y	-1015
▁ears	-1016
▁cross	-1017
▁fruit	-1018
▁smaller	-1019
▁surrounded	-1020
lder	-1021
▁cre	-1022
▁don	-1023
▁row	-1024
▁who	-1025
aring	-1026
▁sung	-1027
▁about	-1028
▁going	-1029
▁mountains	-1030
▁snowboard	-1031
▁sunglasses	-1032
▁we	-1033
▁var	-1034
sting	-1035
▁says	-1036
▁wine	-1037
▁carry	-1038
▁running	-1039
▁station	-1040
▁THE	-1041
▁bare	-1042
▁coll	-1043
▁edge	-1044
▁trun	-1045
▁stick	-1046
▁veget	-1047
▁animals	-1048
▁G	-1049
der	-1050
ies	-1051
iger	-1052
neath	-1053
▁stone	-1054
▁facing	-1055
▁displ	-1056
▁bro	-1057
▁mult	-1058
▁shining	-1059
▁end	-1060
▁low	-1061
▁cell	-1062
▁cheese	-1063
▁full	-1064
▁obje	-1065
▁handle	-1066
▁carrying	-1067
▁log	-1068
▁cows	-1069
▁D	-1070
▁Her	-1071
▁ind	-1072
▁key	-1073
ither	-1074
riger	-1075
▁tile	-1076
▁enclo	-1077
▁number	-1078
▁refriger	-1079
iss	-1080
vis	-1081
ward	-1082
▁swe	-1083
▁more	-1084
▁only	-1085
▁refrigerator	-1086
▁E	-1087
▁R	-1088
cor	-1089
cean	-1090
▁walk	-1091
▁ocean	-1092
▁button	-1093
▁Another	-1094
ric	-1095
▁coo	-1096
▁half	-1097
▁pass	-1098
vision	-1099
▁appear	-1100
▁either	-1101
▁turned	-1102
▁wheels	-1103
▁display	-1104
▁driving	-1105
▁television	-1106
ost	-1107
▁mat	-1108
aning	-1109
▁been	-1110
▁chain	-1111
▁store	-1112
▁bridge	-1113
▁coming	-1114
ered	-1115
nder	-1116
▁You	-1117
▁pol	-1118
▁slight	-1119
▁bananas	-1120
cer	-1121
ges	-1122
▁ex	-1123
ctly	-1124
▁bal	-1125
▁word	-1126
▁animal	-1127
ab	-1128
eak	-1129
ped	-1130
case	-1131
head	-1132
▁pos	-1133
▁leaf	-1134
▁thin	-1135
▁underneath	-1136
ns	-1137
ond	-1138
pped	-1139
▁pot	-1140
▁dogs	-1141
▁home	-1142
▁tray	-1143
▁frame	-1144
▁leaning	-1145
itten	-1146
▁past	-1147
▁tank	-1148
do	-1149
rol	-1150
▁ty	-1151
ines	-1152
▁kni	-1153
▁som	-1154
▁bran	-1155
ething	-1156
▁plant	-1157
▁stove	-1158
▁pieces	-1159
▁various	-1160
▁cabinets	-1161
▁umbrellas	-1162
ws	-1163
ils	-1164
ren	-1165
▁mon	-1166
▁place	-1167
▁stripe	-1168
▁something	-1169
▁All	-1170
▁dou	-1171
▁slo	-1172
▁hold	-1173
▁post	-1174
▁what	-1175
▁sauce	-1176
▁thick	-1177
os	-1178
ely	-1179
▁Se	-1180
▁get	-1181
▁lit	-1182
▁rem	-1183
▁jump	-1184
▁mark	-1185
▁showing	-1186
▁U	-1187
kes	-1188
irts	-1189
uffy	-1190
ement	-1191
▁decor	-1192
▁blonde	-1193
▁couple	-1194
▁plants	-1195
▁runway	-1196
▁catcher	-1197
▁keyboard	-1198
▁slightly	-1199
▁motorcycles	-1200
kin	-1201
zing	-1202
▁kne	-1203
cting	-1204
▁paved	-1205
▁shown	-1206
▁enclos	-1207
▁vegetable	-1208
cco	-1209
ffee	-1210
▁per	-1211
ading	-1212
▁base	-1213
▁stat	-1214
eakers	-1215
ix	-1216
ato	-1217
pes	-1218
ugg	-1219
pper	-1220
▁ear	-1221
▁cont	-1222
▁flag	-1223
▁foot	-1224
▁coffee	-1225
▁numbers	-1226
▁container	-1227
▁cl	-1228
▁ted	-1229
ccoli	-1230
▁away	-1231
▁meat	-1232
▁than	-1233
▁shore	-1234
▁enclosure	-1235
ries	-1236
▁way	-1237
▁pile	-1238
▁spots	-1239
▁teddy	-1240
▁wings	-1241
▁basket	-1242
▁sneakers	-1243
let	-1244
ruct	-1245
▁oven	-1246
▁roll	-1247
▁books	-1248
▁bread	-1249
▁closed	-1250
▁broccoli	-1251
▁directly	-1252
av	-1253
bs	-1254
cts	-1255
ser	-1256
rink	-1257
light	-1258
▁arms	-1259
▁blan	-1260
▁prin	-1261
▁same	-1262
▁slic	-1263
▁doors	-1264
▁swing	-1265
▁collar	-1266
▁taking	-1267
▁bor	-1268
▁dry	-1269
▁gar	-1270
▁hit	-1271
▁loc	-1272
▁dish	-1273
▁land	-1274
▁trim	-1275
▁skier	-1276
▁grazing	-1277
▁foreground	-1278
▁shou	-1279
▁gloves	-1280
cl	-1281
▁cas	-1282
▁eng	-1283
▁ext	-1284
▁draw	-1285
▁clean	-1286
▁knife	-1287
▁ready	-1288
▁living	-1289
▁shaped	-1290
ents	-1291
▁pan	-1292
▁van	-1293
▁kites	-1294
▁remot	-1295
▁colors	-1296
▁shower	-1297
▁tables	-1298
▁resting	-1299
▁surface	-1300
▁un	-1301
▁spe	-1302
▁Above	-1303
▁older	-1304
▁stain	-1305
▁vehicles	-1306
ars	-1307
ats	-1308
ene	-1309
ked	-1310
ool	-1311
ron	-1312
cond	-1313
▁mar	-1314
▁rug	-1315
ctang	-1316
▁fork	-1317
▁rain	-1318
▁dirty	-1319
▁monit	-1320
▁Beside	-1321
▁cement	-1322
▁second	-1323
▁shirts	-1324
▁Several	-1325
▁players	-1326
▁rectang	-1327
ads	-1328
ial	-1329
mer	-1330
umer	-1331
▁nap	-1332
▁lots	-1333
▁wires	-1334
ructure	-1335
▁written	-1336
▁reflecting	-1337
ale	-1338
gra	-1339
ian	-1340
our	-1341
▁pen	-1342
▁close	-1343
▁flower	-1344
▁passen	-1345
▁railing	-1346
▁direction	-1347
▁structure	-1348
end	-1349
▁gu	-1350
▁kid	-1351
▁net	-1352
▁par	-1353
▁soc	-1354
ition	-1355
▁boys	-1356
rowing	-1357
▁bikes	-1358
▁trunk	-1359
▁patches	-1360
ber	-1361
iew	-1362
▁if	-1363
port	-1364
▁cru	-1365
▁ramp	-1366
▁sciss	-1367
▁wears	-1368
▁At	-1369
▁book	-1370
▁calm	-1371
▁logo	-1372
▁view	-1373
▁cream	-1374
▁stair	-1375
▁napkin	-1376
▁soccer	-1377
▁blanket	-1378
▁cabinet	-1379
▁shelves	-1380
▁covering	-1381
aur	-1382
yond	-1383
▁lid	-1384
▁pit	-1385
ggles	-1386
lored	-1387
▁rack	-1388
▁time	-1389
▁night	-1390
▁stuff	-1391
▁getting	-1392
▁goggles	-1393
▁located	-1394
▁suitcase	-1395
RE	-1396
icyc	-1397
ially	-1398
▁lined	-1399
▁outdo	-1400
▁slope	-1401
▁socks	-1402
▁tiles	-1403
▁tooth	-1404
▁watch	-1405
▁houses	-1406
▁sweater	-1407
▁vegetables	-1408
eds	-1409
▁mic	-1410
▁tal	-1411
▁Four	-1412
▁stor	-1413
▁river	-1414
▁patter	-1415
▁leather	-1416
▁pillows	-1417
▁restaur	-1418
fa	-1419
ib	-1420
▁bur	-1421
▁siz	-1422
▁lady	-1423
▁multi	-1424
▁scene	-1425
▁seems	-1426
▁shows	-1427
▁stack	-1428
▁double	-1429
▁surfing	-1430
▁photogra	-1431
▁restaurant	-1432
IN	-1433
uck	-1434
▁smo	-1435
▁Most	-1436
▁crow	-1437
▁incl	-1438
▁rail	-1439
▁tire	-1440
uggage	-1441
▁bears	-1442
▁buses	-1443
▁fluffy	-1444
▁letter	-1445
gh	-1446
od	-1447
ps	-1448
ave	-1449
irst	-1450
ping	-1451
sest	-1452
▁cho	-1453
▁pow	-1454
phone	-1455
▁type	-1456
▁bicyc	-1457
▁holds	-1458
▁mouse	-1459
▁numer	-1460
▁remote	-1461
▁section	-1462
▁curtains	-1463
▁shoulder	-1464
▁partially	-1465
arm	-1466
avy	-1467
mato	-1468
▁eye	-1469
▁heads	-1470
▁polar	-1471
▁skirt	-1472
▁wrist	-1473
▁donuts	-1474
▁golden	-1475
▁skiing	-1476
▁tomato	-1477
▁luggage	-1478
▁circular	-1479
az	-1480
ony	-1481
ills	-1482
ions	-1483
▁wra	-1484
▁bush	-1485
▁adult	-1486
▁birds	-1487
▁first	-1488
▁words	-1489
▁microw	-1490
▁partly	-1491
▁jumping	-1492
▁objects	-1493
▁waiting	-1494
▁pictures	-1495
col	-1496
vid	-1497
▁hard	-1498
▁sofa	-1499
colate	-1500
▁crowd	-1501
▁shape	-1502
▁planes	-1503
▁airport	-1504
▁benches	-1505
▁closest	-1506
▁control	-1507
▁cutting	-1508
▁talking	-1509
▁chocolate	-1510
▁microwave	-1511
▁reflection	-1512
ol	-1513
▁1	-1514
▁2	-1515
▁kn	-1516
ppos	-1517
time	-1518
▁bec	-1519
tered	-1520
▁flat	-1521
▁male	-1522
▁path	-1523
▁prep	-1524
▁step	-1525
▁still	-1526
▁batter	-1527
▁includ	-1528
▁Frisbee	-1529
any	-1530
ause	-1531
cast	-1532
hite	-1533
▁Tall	-1534
▁cand	-1535
▁gate	-1536
▁onto	-1537
▁shade	-1538
▁straw	-1539
▁apples	-1540
▁extend	-1541
▁swinging	-1542
wn	-1543
iti	-1544
ium	-1545
pet	-1546
▁IS	-1547
▁TV	-1548
▁al	-1549
ases	-1550
ones	-1551
▁link	-1552
▁port	-1553
▁oppos	-1554
▁carpet	-1555
▁statue	-1556
▁trains	-1557
▁stuffed	-1558
▁overcast	-1559
▁rectangular	-1560
ral	-1561
▁ap	-1562
cted	-1563
pack	-1564
▁bra	-1565
▁cro	-1566
▁jet	-1567
▁blur	-1568
▁drink	-1569
▁patch	-1570
▁steel	-1571
▁trash	-1572
▁banana	-1573
▁monitor	-1574
▁vehicle	-1575
▁backpack	-1576
▁children	-1577
ail	-1578
arp	-1579
ess	-1580
hed	-1581
ise	-1582
here	-1583
ical	-1584
▁ent	-1585
▁guy	-1586
▁tub	-1587
▁pack	-1588
▁plac	-1589
▁rear	-1590
▁skin	-1591
▁girls	-1592
▁shiny	-1593
▁slice	-1594
▁towels	-1595
▁because	-1596
▁bicycle	-1597
▁branches	-1598
▁scissors	-1599
elf	-1600
uit	-1601
cing	-1602
cket	-1603
▁bea	-1604
▁tin	-1605
ffiti	-1606
▁yard	-1607
▁Under	-1608
▁seats	-1609
▁towel	-1610
▁circle	-1611
▁slices	-1612
▁trucks	-1613
▁handles	-1614
ND	-1615
ags	-1616
aid	-1617
med	-1618
ding	-1619
icks	-1620
inds	-1621
land	-1622
rees	-1623
sing	-1624
vert	-1625
▁mas	-1626
▁bags	-1627
▁outf	-1628
▁pull	-1629
▁swim	-1630
▁block	-1631
▁boots	-1632
▁check	-1633
▁glove	-1634
▁hills	-1635
attered	-1636
▁bottles	-1637
▁graffiti	-1638
▁opposite	-1639
sc	-1640
ley	-1641
ature	-1642
▁cord	-1643
▁deep	-1644
▁hats	-1645
▁name	-1646
▁beard	-1647
▁horns	-1648
▁plaid	-1649
▁border	-1650
▁engine	-1651
▁object	-1652
▁daytime	-1653
▁designs	-1654
▁oranges	-1655
▁sticking	-1656
bru	-1657
man	-1658
ore	-1659
▁am	-1660
thes	-1661
▁any	-1662
▁bit	-1663
▁sep	-1664
▁ser	-1665
▁sing	-1666
▁wide	-1667
▁work	-1668
lights	-1669
▁carro	-1670
▁lying	-1671
▁gravel	-1672
▁office	-1673
▁others	-1674
▁toothbru	-1675
pt	-1676
▁gi	-1677
▁hu	-1678
ared	-1679
izon	-1680
▁fan	-1681
▁leg	-1682
▁mug	-1683
▁zoo	-1684
▁cart	-1685
▁deck	-1686
▁hood	-1687
▁main	-1688
▁rust	-1689
▁vest	-1690
uching	-1691
▁elect	-1692
▁spoon	-1693
▁outfit	-1694
▁travel	-1695
▁clothes	-1696
▁horizon	-1697
▁pitcher	-1698
▁shadows	-1699
▁lettering	-1700
▁photograph	-1701
ER	-1702
oon	-1703
▁As	-1704
▁St	-1705
eath	-1706
▁bel	-1707
▁palm	-1708
▁scar	-1709
▁Trees	-1710
▁donut	-1711
▁flags	-1712
▁grill	-1713
▁purse	-1714
▁papers	-1715
▁sticks	-1716
▁bedroom	-1717
▁beneath	-1718
▁passenger	-1719
ico	-1720
ates	-1721
▁din	-1722
▁fre	-1723
▁min	-1724
ersey	-1725
▁held	-1726
▁lake	-1727
▁mane	-1728
▁team	-1729
▁wing	-1730
▁bowls	-1731
▁hangs	-1732
▁lower	-1733
▁weeds	-1734
▁growing	-1735
▁setting	-1736
".	-1737
ING	-1738
ens	-1739
omes	-1740
▁fem	-1741
▁nar	-1742
▁pul	-1743
▁sty	-1744
▁toy	-1745
▁ump	-1746
nding	-1747
▁Each	-1748
▁five	-1749
▁must	-1750
▁paws	-1751
shield	-1752
▁chest	-1753
▁doing	-1754
▁rider	-1755
▁steps	-1756
▁jersey	-1757
▁larger	-1758
▁narrow	-1759
▁trunks	-1760
▁umpire	-1761
▁pointed	-1762
▁someone	-1763
▁straight	-1764
IT	-1765
auc	-1766
▁mu	-1767
cept	-1768
iful	-1769
▁med	-1770
▁Many	-1771
▁case	-1772
▁chop	-1773
▁does	-1774
▁pony	-1775
▁print	-1776
▁bricks	-1777
▁floral	-1778
▁placed	-1779
▁trying	-1780
icolored	-1781
▁walkway	-1782
▁traveling	-1783
▁windshield	-1784
▁multicolored	-1785
▁skateboarding	-1786
tu	-1787
▁V	-1788
ety	-1789
ins	-1790
ppy	-1791
▁el	-1792
akes	-1793
ibly	-1794
▁ble	-1795
▁may	-1796
▁spl	-1797
place	-1798
uring	-1799
xture	-1800
▁dock	-1801
▁White	-1802
▁beaut	-1803
▁power	-1804
▁separ	-1805
▁branch	-1806
▁moving	-1807
▁pulled	-1808
▁forward	-1809
▁soaring	-1810
▁crossing	-1811
▁pointing	-1812
▁scattered	-1813
▁decoration	-1814
▁toothbrush	-1815
if	-1816
bles	-1817
ired	-1818
ised	-1819
kers	-1820
▁alm	-1821
▁cer	-1822
▁hel	-1823
▁por	-1824
▁sal	-1825
There	-1826
ators	-1827
eping	-1828
otted	-1829
ppers	-1830
ridge	-1831
▁foam	-1832
▁navy	-1833
▁poss	-1834
▁boxes	-1835
▁using	-1836
▁making	-1837
▁single	-1838
▁spread	-1839
▁pattern	-1840
▁pulling	-1841
▁sunlight	-1842
▁tomatoes	-1843
▁fireplace	-1844
line	-1845
ling	-1846
▁too	-1847
▁tus	-1848
▁card	-1849
▁cons	-1850
▁fall	-1851
▁form	-1852
▁kids	-1853
▁knee	-1854
▁lush	-1855
▁pale	-1856
▁pick	-1857
▁shop	-1858
▁brush	-1859
▁crust	-1860
▁paint	-1861
▁spect	-1862
▁beyond	-1863
▁cooked	-1864
▁stairs	-1865
▁brightly	-1866
▁overhead	-1867
▁painting	-1868
▁stainless	-1869
▁controller	-1870
▁IN	-1871
▁sy	-1872
ront	-1873
▁tag	-1874
meric	-1875
there	-1876
▁dust	-1877
▁pots	-1878
▁seem	-1879
▁sort	-1880
aching	-1881
▁Asian	-1882
▁scarf	-1883
▁tires	-1884
▁trick	-1885
▁almost	-1886
▁blinds	-1887
▁comfor	-1888
▁except	-1889
▁female	-1890
▁framed	-1891
▁fridge	-1892
▁surfer	-1893
▁carrots	-1894
▁casting	-1895
▁wrapped	-1896
▁frosting	-1897
▁possibly	-1898
▁beautiful	-1899
▁preparing	-1900
me	-1901
▁qu	-1902
ages	-1903
ists	-1904
ngth	-1905
▁eat	-1906
▁haz	-1907
▁res	-1908
▁win	-1909
eling	-1910
hered	-1911
liage	-1912
▁bent	-1913
▁cast	-1914
▁gear	-1915
▁mask	-1916
▁ship	-1917
▁homes	-1918
▁posts	-1919
▁prote	-1920
▁sharp	-1921
▁snowy	-1922
▁tiled	-1923
▁blurry	-1924
▁curved	-1925
▁forest	-1926
▁island	-1927
▁lining	-1928
▁raised	-1929
▁foliage	-1930
▁portion	-1931
▁clothing	-1932
oot	-1933
pap	-1934
▁ON	-1935
▁cr	-1936
amic	-1937
umin	-1938
▁And	-1939
▁Its	-1940
▁bre	-1941
▁rim	-1942
front	-1943
▁band	-1944
▁bars	-1945
▁belt	-1946
▁curb	-1947
▁jean	-1948
▁lawn	-1949
▁pool	-1950
▁pres	-1951
▁soap	-1952
ixture	-1953
▁arrow	-1954
▁faces	-1955
▁steep	-1956
▁takes	-1957
▁third	-1958
▁Americ	-1959
▁garage	-1960
▁maroon	-1961
▁pepper	-1962
▁ceramic	-1963
▁leading	-1964
▁peppers	-1965
▁checkered	-1966
ii	-1967
▁3	-1968
ery	-1969
ged	-1970
▁gl	-1971
acks	-1972
ense	-1973
kets	-1974
ough	-1975
ring	-1976
▁pad	-1977
▁saf	-1978
▁six	-1979
▁sub	-1980
▁tip	-1981
ative	-1982
▁Also	-1983
▁beds	-1984
▁busy	-1985
▁pine	-1986
▁tops	-1987
▁carri	-1988
▁fresh	-1989
▁mount	-1990
▁teeth	-1991
▁clocks	-1992
▁length	-1993
▁doorway	-1994
▁outdoors	-1995
▁sleeping	-1996
▁skateboarder	-1997
▁Ch	-1998
▁ur	-1999
alle	-2000
road	-2001
urch	-2002
▁fab	-2003
▁foc	-2004
▁mil	-2005
cloth	-2006
▁cats	-2007
▁cups	-2008
▁duck	-2009
▁fauc	-2010
▁lime	-2011
▁sail	-2012
▁size	-2013
▁supp	-2014
▁tent	-2015
▁tied	-2016
▁indic	-2017
▁sweat	-2018
▁church	-2019
▁fabric	-2020
▁fruits	-2021
▁skiers	-2022
▁buttons	-2023
▁candles	-2024
▁mounted	-2025
▁outdoor	-2026
▁stacked	-2027
▁position	-2028
▁touching	-2029
▁uniforms	-2030
▁comforter	-2031
▁tablecloth	-2032
io	-2033
▁.	-2034
bow	-2035
ced	-2036
hak	-2037
hou	-2038
ong	-2039
que	-2040
band	-2041
inal	-2042
ivid	-2043
ural	-2044
▁gat	-2045
▁ped	-2046
green	-2047
paper	-2048
▁bord	-2049
▁fing	-2050
▁hazy	-2051
▁iron	-2052
▁pave	-2053
athers	-2054
▁Green	-2055
▁Other	-2056
▁ahead	-2057
▁apart	-2058
▁apple	-2059
▁smoke	-2060
▁style	-2061
▁trans	-2062
▁banner	-2063
▁faucet	-2064
▁jackets	-2065
▁staring	-2066
▁extended	-2067
▁displayed	-2068
▁spectators	-2069
AT	-2070
bb	-2071
ily	-2072
loo	-2073
set	-2074
▁ut	-2075
ming	-2076
icker	-2077
tched	-2078
▁beak	-2079
▁feed	-2080
▁herd	-2081
▁khak	-2082
▁lift	-2083
▁meal	-2084
▁nice	-2085
▁wets	-2086
▁whis	-2087
lowing	-2088
vertis	-2089
▁Their	-2090
▁chick	-2091
▁sandy	-2092
berries	-2093
▁Inside	-2094
▁inters	-2095
▁onions	-2096
▁seated	-2097
▁shades	-2098
▁stones	-2099
▁winter	-2100
▁bending	-2101
▁wetsuit	-2102
▁working	-2103
▁electric	-2104
▁feathers	-2105
▁gathered	-2106
▁pavement	-2107
▁headlights	-2108
ky	-2109
▁J	-2110
tub	-2111
ual	-2112
gers	-2113
long	-2114
ware	-2115
▁acc	-2116
▁att	-2117
▁col	-2118
▁kno	-2119
▁lab	-2120
▁lad	-2121
▁sim	-2122
ctive	-2123
iding	-2124
▁bell	-2125
▁huge	-2126
▁prop	-2127
▁ripp	-2128
▁tong	-2129
▁Below	-2130
▁alone	-2131
▁cones	-2132
▁moder	-2133
▁salad	-2134
▁tusks	-2135
▁vases	-2136
▁walks	-2137
▁Beyond	-2138
▁covers	-2139
▁pedest	-2140
▁posing	-2141
▁taller	-2142
▁wicker	-2143
▁rolling	-2144
▁weather	-2145
▁American	-2146
▁advertis	-2147
▁contains	-2148
▁numerals	-2149
▁railroad	-2150
▁including	-2151
▁containers	-2152
AN	-2153
In	-2154
▁K	-2155
thy	-2156
tle	-2157
anes	-2158
bage	-2159
body	-2160
ured	-2161
▁cub	-2162
▁har	-2163
▁hay	-2164
▁mix	-2165
▁sea	-2166
▁sol	-2167
right	-2168
▁cage	-2169
▁even	-2170
▁item	-2171
▁much	-2172
▁stem	-2173
▁take	-2174
▁tarm	-2175
▁catch	-2176
▁lettu	-2177
▁plain	-2178
▁reads	-2179
▁sheet	-2180
▁wheel	-2181
▁decker	-2182
▁floors	-2183
▁medium	-2184
▁signal	-2185
▁bathtub	-2186
▁chicken	-2187
▁landing	-2188
▁lighter	-2189
▁sleeved	-2190
▁numerous	-2191
▁reaching	-2192
▁telephone	-2193
OU	-2194
du	-2195
▁5	-2196
tal	-2197
▁No	-2198
▁OF	-2199
▁tu	-2200
ails	-2201
wood	-2202
▁bou	-2203
▁exp	-2204
▁ice	-2205
▁ill	-2206
▁oli	-2207
iness	-2208
▁char	-2209
▁cras	-2210
▁dead	-2211
▁drin	-2212
▁hole	-2213
▁mini	-2214
▁mush	-2215
▁ring	-2216
▁rows	-2217
▁shru	-2218
▁soft	-2219
▁teal	-2220
▁dough	-2221
▁giant	-2222
▁khaki	-2223
▁knees	-2224
▁leafs	-2225
▁leafy	-2226
▁leash	-2227
▁mound	-2228
▁story	-2229
▁tents	-2230
▁bigger	-2231
▁butter	-2232
▁darker	-2233
▁market	-2234
▁propel	-2235
▁safety	-2236
▁sliced	-2237
▁sprink	-2238
▁tarmac	-2239
▁triang	-2240
▁vanity	-2241
vergreen	-2242
▁illumin	-2243
▁individ	-2244
▁interse	-2245
▁lettuce	-2246
▁carriage	-2247
▁mushroom	-2248
▁whiskers	-2249
▁passengers	-2250
jo	-2251
ITH	-2252
ary	-2253
ggy	-2254
lic	-2255
ook	-2256
ray	-2257
ues	-2258
▁Bl	-2259
▁Sm	-2260
▁aw	-2261
▁id	-2262
▁ow	-2263
ably	-2264
ctor	-2265
hing	-2266
ners	-2267
tail	-2268
▁mag	-2269
▁orn	-2270
cross	-2271
pping	-2272
rench	-2273
▁WITH	-2274
▁bald	-2275
▁neat	-2276
▁pill	-2277
▁pret	-2278
dition	-2279
▁curly	-2280
▁inter	-2281
▁lamps	-2282
▁solid	-2283
▁suitc	-2284
▁upper	-2285
colored	-2286
▁boards	-2287
▁frames	-2288
▁itself	-2289
▁modern	-2290
▁pizzas	-2291
▁upward	-2292
▁current	-2293
▁perched	-2294
▁spotted	-2295
▁drinking	-2296
▁markings	-2297
▁throwing	-2298
▁cloudless	-2299
▁evergreen	-2300
▁headboard	-2301
▁propeller	-2302
▁reflected	-2303
▁intersection	-2304
ia	-2305
py	-2306
▁-	-2307
act	-2308
bor	-2309
eep	-2310
mbo	-2311
ole	-2312
ons	-2313
adow	-2314
ideo	-2315
pend	-2316
▁AND	-2317
▁bul	-2318
▁cli	-2319
allow	-2320
ioned	-2321
rings	-2322
▁here	-2323
▁kick	-2324
▁lone	-2325
▁make	-2326
▁sets	-2327
▁const	-2328
▁parts	-2329
▁puffy	-2330
▁scoot	-2331
▁symbo	-2332
▁video	-2333
▁during	-2334
▁marble	-2335
▁motion	-2336
▁potato	-2337
▁pretty	-2338
▁stream	-2339
▁engines	-2340
▁present	-2341
▁squares	-2342
▁leafless	-2343
▁swimming	-2344
▁cellphone	-2345
▁forefront	-2346
▁sidewalks	-2347
▁suitcases	-2348
▁decorations	-2349
AR	-2350
HE	-2351
ON	-2352
aks	-2353
nic	-2354
opy	-2355
ache	-2356
ried	-2357
vers	-2358
▁THe	-2359
▁art	-2360
▁dep	-2361
▁int	-2362
▁ket	-2363
▁mud	-2364
▁put	-2365
uched	-2366
▁atop	-2367
▁atte	-2368
▁bagg	-2369
▁cush	-2370
▁diam	-2371
▁fair	-2372
▁fold	-2373
▁good	-2374
▁indo	-2375
▁mans	-2376
▁news	-2377
▁ones	-2378
▁runs	-2379
▁then	-2380
▁used	-2381
▁Small	-2382
▁THERE	-2383
▁among	-2384
▁brace	-2385
▁conne	-2386
▁rocky	-2387
▁strap	-2388
▁utens	-2389
▁Across	-2390
▁bucket	-2391
▁french	-2392
▁having	-2393
▁opened	-2394
▁potted	-2395
▁things	-2396
▁upside	-2397
▁Someone	-2398
▁complet	-2399
▁garbage	-2400
▁ripples	-2401
▁hardwood	-2402
▁multiple	-2403
▁ponytail	-2404
▁countertop	-2405
▁decorative	-2406
▁vegetation	-2407
AL	-2408
OW	-2409
uc	-2410
▁4	-2411
ake	-2412
aps	-2413
pit	-2414
rop	-2415
ung	-2416
val	-2417
▁Bu	-2418
▁ST	-2419
ette	-2420
gund	-2421
ined	-2422
▁Lar	-2423
▁Wii	-2424
▁dug	-2425
▁vin	-2426
althy	-2427
bably	-2428
gundy	-2429
▁cock	-2430
▁cond	-2431
▁enjo	-2432
▁fish	-2433
▁liqu	-2434
▁logs	-2435
▁pond	-2436
▁text	-2437
▁arran	-2438
▁ident	-2439
▁mater	-2440
▁point	-2441
▁produ	-2442
▁space	-2443
▁stall	-2444
▁visor	-2445
▁woods	-2446
ruction	-2447
▁candle	-2448
▁desser	-2449
▁holder	-2450
▁mother	-2451
▁picnic	-2452
▁shrubs	-2453
▁tongue	-2454
▁chopped	-2455
▁cooking	-2456
▁diamond	-2457
▁dresser	-2458
▁helmets	-2459
▁highway	-2460
▁laptops	-2461
▁napkins	-2462
▁reading	-2463
▁shallow	-2464
▁skating	-2465
▁stopped	-2466
▁Building	-2467
▁burgundy	-2468
▁business	-2469
▁collared	-2470
▁kneeling	-2471
▁material	-2472
▁probably	-2473
▁currently	-2474
▁completely	-2475
."	-2476
CK	-2477
ano	-2478
ior	-2479
ips	-2480
lee	-2481
quo	-2482
rud	-2483
aded	-2484
ddle	-2485
vice	-2486
▁ARE	-2487
▁ang	-2488
▁cla	-2489
▁equ	-2490
▁lim	-2491
▁mel	-2492
adium	-2493
aster	-2494
ddler	-2495
ering	-2496
lders	-2497
▁Only	-2498
▁chin	-2499
▁cran	-2500
▁dots	-2501
▁goat	-2502
▁milk	-2503
▁rice	-2504
▁tell	-2505
▁trol	-2506
atures	-2507
quoise	-2508
▁Large	-2509
▁belly	-2510
▁colum	-2511
▁happy	-2512
▁hotdo	-2513
▁leads	-2514
▁meter	-2515
▁mixed	-2516
▁piano	-2517
▁roman	-2518
▁rusty	-2519
▁slats	-2520
▁throw	-2521
▁types	-2522
▁drawer	-2523
▁finger	-2524
▁hoodie	-2525
▁pointy	-2526
▁accents	-2527
▁baskets	-2528
▁healthy	-2529
▁sleeves	-2530
▁steeple	-2531
▁toddler	-2532
▁trolley	-2533
▁upright	-2534
▁crashing	-2535
▁crouched	-2536
▁enjoying	-2537
▁greenery	-2538
▁matching	-2539
▁monitors	-2540
▁cardboard	-2541
▁turquoise	-2542
▁sweatshirt	-2543
▁skateboards	-2544
▁strawberries	-2545
EN	-2546
IL	-2547
cy	-2548
ka	-2549
ms	-2550
wh	-2551
nel	-2552
nit	-2553
▁du	-2554
ason	-2555
ness	-2556
ould	-2557
quet	-2558
walk	-2559
▁dim	-2560
▁pet	-2561
▁rol	-2562
▁tea	-2563
pings	-2564
▁arch	-2565
▁balc	-2566
▁cone	-2567
▁free	-2568
▁keep	-2569
▁mess	-2570
▁neon	-2571
▁pads	-2572
▁prot	-2573
▁push	-2574
▁saus	-2575
▁spor	-2576
▁warm	-2577
niture	-2578
▁These	-2579
▁appli	-2580
▁bushy	-2581
▁deser	-2582
▁drawn	-2583
▁dried	-2584
▁edges	-2585
▁every	-2586
▁fries	-2587
▁knobs	-2588
▁squat	-2589
▁stems	-2590
looking	-2591
▁arched	-2592
▁awning	-2593
▁canopy	-2594
▁draped	-2595
▁haired	-2596
▁sheets	-2597
▁string	-2598
▁Outside	-2599
▁crossed	-2600
▁drawers	-2601
▁fencing	-2602
▁freshly	-2603
▁mustard	-2604
▁stadium	-2605
▁streets	-2606
▁consists	-2607
▁toppings	-2608
▁Buildings	-2609
▁apartment	-2610
▁decorated	-2611
▁mushrooms	-2612
▁surrounds	-2613
ED	-2614
go	-2615
vy	-2616
▁6	-2617
amp	-2618
cel	-2619
ike	-2620
key	-2621
▁Co	-2622
▁ju	-2623
cial	-2624
dish	-2625
fter	-2626
ilar	-2627
tain	-2628
▁Clo	-2629
▁Off	-2630
▁fam	-2631
▁fig	-2632
▁lem	-2633
▁paw	-2634
▁ran	-2635
▁sad	-2636
▁tee	-2637
ances	-2638
arden	-2639
▁Five	-2640
▁Near	-2641
▁Over	-2642
▁amou	-2643
▁beer	-2644
▁bull	-2645
▁chef	-2646
▁clut	-2647
▁eyeg	-2648
▁fash	-2649
▁kind	-2650
▁life	-2651
▁mach	-2652
▁moss	-2653
▁rese	-2654
▁ribb	-2655
▁rope	-2656
▁sale	-2657
▁star	-2658
▁town	-2659
▁vent	-2660
▁vert	-2661
othing	-2662
ruding	-2663
▁beans	-2664
▁drive	-2665
▁ducks	-2666
▁elbow	-2667
▁equip	-2668
▁focus	-2669
▁hotel	-2670
▁label	-2671
▁match	-2672
▁necks	-2673
▁pasta	-2674
▁patio	-2675
▁polka	-2676
▁would	-2677
▁commer	-2678
▁dining	-2679
▁dishes	-2680
▁dispen	-2681
▁drinks	-2682
▁entire	-2683
▁folded	-2684
▁garden	-2685
▁hotdog	-2686
▁ladder	-2687
▁pocket	-2688
▁season	-2689
▁splash	-2690
▁though	-2691
▁balance	-2692
▁blender	-2693
▁cockpit	-2694
▁desktop	-2695
▁further	-2696
▁mixture	-2697
▁perform	-2698
▁reddish	-2699
▁similar	-2700
▁trimmed	-2701
▁headband	-2702
▁mustache	-2703
▁pedestri	-2704
▁pepperon	-2705
▁utensils	-2706
▁furniture	-2707
▁patterned	-2708
▁rectangle	-2709
▁stretched	-2710
▁eyeglasses	-2711
▁horizontal	-2712
▁sleeveless	-2713
▁construction	-2714
▁snowboarding	-2715
da	-2716
ds	-2717
▁8	-2718
day	-2719
erm	-2720
ose	-2721
▁IT	-2722
▁da	-2723
▁em	-2724
ades	-2725
ever	-2726
fore	-2727
icle	-2728
osed	-2729
rist	-2730
self	-2731
tage	-2732
ults	-2733
ways	-2734
▁ant	-2735
▁cal	-2736
▁cra	-2737
▁del	-2738
▁den	-2739
▁det	-2740
▁lic	-2741
▁owl	-2742
▁rub	-2743
▁say	-2744
▁sug	-2745
▁tor	-2746
▁wed	-2747
aking	-2748
ently	-2749
iches	-2750
rance	-2751
thing	-2752
ually	-2753
ublic	-2754
▁beam	-2755
▁cook	-2756
▁cost	-2757
▁cour	-2758
▁ends	-2759
▁pipe	-2760
▁shoe	-2761
▁soda	-2762
▁such	-2763
▁were	-2764
celain	-2765
▁after	-2766
▁divid	-2767
▁eight	-2768
▁heart	-2769
▁makes	-2770
▁offic	-2771
▁proje	-2772
▁rails	-2773
▁sized	-2774
▁spray	-2775
▁whole	-2776
▁attemp	-2777
▁cooler	-2778
▁doughn	-2779
▁dugout	-2780
▁family	-2781
▁liquid	-2782
▁melted	-2783
▁rather	-2784
▁rolled	-2785
▁symbol	-2786
▁columns	-2787
▁license	-2788
▁nothing	-2789
▁pillars	-2790
▁printed	-2791
▁scissor	-2792
▁statues	-2793
▁vintage	-2794
▁boarding	-2795
▁bordered	-2796
▁potatoes	-2797
▁dispenser	-2798
▁newspaper	-2799
▁photograp	-2800
▁porcelain	-2801
▁staircase	-2802
▁yellowish	-2803
▁commercial	-2804
▁protruding	-2805
▁silverware	-2806
▁illuminated	-2807
OP	-2808
OR	-2809
na	-2810
ACK	-2811
ama	-2812
bed	-2813
ded	-2814
res	-2815
use	-2816
▁Sh	-2817
arse	-2818
oman	-2819
ools	-2820
ower	-2821
pers	-2822
slee	-2823
suit	-2824
vels	-2825
▁Air	-2826
▁Fur	-2827
▁adj	-2828
▁ass	-2829
▁egg	-2830
▁gas	-2831
▁hed	-2832
▁pee	-2833
▁rel	-2834
▁sus	-2835
▁wip	-2836
bbles	-2837
ished	-2838
orted	-2839
wards	-2840
▁Cars	-2841
▁bill	-2842
▁goal	-2843
▁hose	-2844
▁hung	-2845
▁mitt	-2846
▁ride	-2847
▁tape	-2848
▁tint	-2849
▁turn	-2850
▁worn	-2851
elling	-2852
ically	-2853
issing	-2854
▁apron	-2855
▁areas	-2856
▁cargo	-2857
▁claws	-2858
▁crane	-2859
▁doesn	-2860
▁fancy	-2861
▁goats	-2862
▁heavy	-2863
▁level	-2864
▁pipes	-2865
▁range	-2866
▁stuck	-2867
▁suits	-2868
ountain	-2869
▁Around	-2870
▁amount	-2871
▁blocks	-2872
▁costum	-2873
▁device	-2874
▁fairly	-2875
▁fenced	-2876
▁kitten	-2877
▁knives	-2878
▁pastry	-2879
▁posted	-2880
▁public	-2881
▁really	-2882
▁shapes	-2883
▁smooth	-2884
▁thrown	-2885
▁baggage	-2886
▁fixture	-2887
▁include	-2888
▁opening	-2889
▁pushing	-2890
▁rackets	-2891
▁scooter	-2892
▁interior	-2893
▁lighting	-2894
▁connected	-2895
▁crosswalk	-2896
▁equipment	-2897
▁headlight	-2898
▁squatting	-2899
▁appliances	-2900
▁containing	-2901
▁sandwiches	-2902
▁triangular	-2903
▁snowboarder	-2904
ew	-2905
ha	-2906
ROU	-2907
esh	-2908
ier	-2909
iff	-2910
mas	-2911
min	-2912
ory	-2913
per	-2914
rem	-2915
▁BL	-2916
▁jo	-2917
▁tw	-2918
ball	-2919
chup	-2920
hday	-2921
ices	-2922
rial	-2923
rome	-2924
urky	-2925
vent	-2926
what	-2927
▁dot	-2928
▁due	-2929
▁sch	-2930
▁sou	-2931
▁suv	-2932
ROUND	-2933
acent	-2934
andel	-2935
asian	-2936
house	-2937
ronic	-2938
ustom	-2939
▁bank	-2940
▁birt	-2941
▁cold	-2942
▁fast	-2943
▁foil	-2944
▁glaz	-2945
▁hall	-2946
▁help	-2947
▁lies	-2948
▁love	-2949
▁oval	-2950
▁polo	-2951
▁pump	-2952
▁read	-2953
▁shut	-2954
▁tiny	-2955
▁upon	-2956
esides	-2957
icular	-2958
▁Along	-2959
▁depic	-2960
▁footp	-2961
▁furry	-2962
▁lambs	-2963
▁murky	-2964
▁rests	-2965
▁roofs	-2966
▁ropes	-2967
▁sinks	-2968
▁skies	-2969
▁smile	-2970
▁sugar	-2971
▁tails	-2972
▁these	-2973
▁wrink	-2974
ristmas	-2975
ustrial	-2976
▁adults	-2977
▁custom	-2978
▁dinner	-2979
▁grapes	-2980
▁meadow	-2981
▁ornate	-2982
▁ribbon	-2983
▁rubber	-2984
▁school	-2985
▁sparse	-2986
▁stores	-2987
▁towers	-2988
ditional	-2989
▁Further	-2990
▁circles	-2991
▁costume	-2992
▁cubicle	-2993
▁evening	-2994
▁falling	-2995
▁grasses	-2996
▁grayish	-2997
▁ketchup	-2998
▁machine	-2999
▁pathway	-3000
▁propped	-3001
▁putting	-3002
▁remotes	-3003
▁shorter	-3004
▁sliding	-3005
▁stained	-3006
▁stories	-3007
▁suspend	-3008
▁wedding	-3009
▁birthday	-3010
▁entrance	-3011
▁somewhat	-3012
▁stickers	-3013
▁alongside	-3014
▁identical	-3015
▁pepperoni	-3016
▁shoulders	-3017
▁electrical	-3018
▁electronic	-3019
▁individual	-3020
▁industrial	-3021
▁protective	-3022
AY	-3023
Be	-3024
ES	-3025
IR	-3026
OL	-3027
On	-3028
att	-3029
hel	-3030
ilt	-3031
ken	-3032
ute	-3033
yal	-3034
▁20	-3035
hers	-3036
iety	-3037
ific	-3038
itch	-3039
zzle	-3040
▁Sun	-3041
▁amb	-3042
▁emb	-3043
▁fol	-3044
▁had	-3045
▁ham	-3046
▁hoo	-3047
▁how	-3048
▁isn	-3049
▁ple	-3050
▁sem	-3051
▁tex	-3052
▁til	-3053
▁tun	-3054
▁vib	-3055
allel	-3056
ately	-3057
aving	-3058
entle	-3059
ident	-3060
ility	-3061
inder	-3062
ipped	-3063
omach	-3064
▁Stre	-3065
▁comm	-3066
▁done	-3067
▁else	-3068
▁hour	-3069
▁lays	-3070
▁lead	-3071
▁mesh	-3072
▁outs	-3073
▁prog	-3074
▁soup	-3075
▁tags	-3076
▁tarp	-3077
▁wavy	-3078
Behind	-3079
boards	-3080
lderly	-3081
phones	-3082
roller	-3083
▁Every	-3084
▁Light	-3085
▁appro	-3086
▁balls	-3087
▁break	-3088
▁carts	-3089
▁cliff	-3090
▁cords	-3091
▁denim	-3092
▁enter	-3093
▁entry	-3094
▁faded	-3095
▁holes	-3096
▁juice	-3097
▁least	-3098
▁marks	-3099
▁messy	-3100
▁neckl	-3101
▁noteb	-3102
▁olive	-3103
▁porch	-3104
▁rainy	-3105
▁rides	-3106
▁rolls	-3107
▁sizes	-3108
▁barely	-3109
▁chains	-3110
▁chrome	-3111
▁course	-3112
▁extrem	-3113
▁figure	-3114
▁gentle	-3115
▁neatly	-3116
▁nobody	-3117
▁photos	-3118
▁skinny	-3119
▁turkey	-3120
▁urinal	-3121
▁balcony	-3122
▁balding	-3123
▁blurred	-3124
▁borders	-3125
▁bottoms	-3126
▁elderly	-3127
▁feeding	-3128
▁heading	-3129
▁hitting	-3130
▁rounded	-3131
▁sticker	-3132
▁stomach	-3133
▁support	-3134
▁vibrant	-3135
▁bracelet	-3136
▁driveway	-3137
▁enclosed	-3138
▁forehead	-3139
▁hillside	-3140
▁pastries	-3141
▁prepared	-3142
▁sections	-3143
▁shopping	-3144
▁stroller	-3145
▁airplanes	-3146
▁shirtless	-3147
▁wallpaper	-3148
▁attempting	-3149
▁indicating	-3150
▁performing	-3151
AD	-3152
AS	-3153
ID	-3154
OM	-3155
gy	-3156
yl	-3157
alk	-3158
alt	-3159
ban	-3160
fts	-3161
igs	-3162
ney	-3163
▁Bo	-3164
▁ge	-3165
aces	-3166
aker	-3167
anda	-3168
anie	-3169
bble	-3170
drop	-3171
ence	-3172
ging	-3173
hang	-3174
ided	-3175
iled	-3176
oned	-3177
pass	-3178
scap	-3179
scra	-3180
▁Red	-3181
▁Six	-3182
▁Tra	-3183
▁bod	-3184
▁dus	-3185
▁fat	-3186
▁fun	-3187
▁gaz	-3188
▁hig	-3189
▁mod	-3190
▁pas	-3191
▁rac	-3192
anite	-3193
attoo	-3194
cakes	-3195
cking	-3196
rints	-3197
ugged	-3198
ument	-3199
white	-3200
▁bark	-3201
▁bits	-3202
▁blaz	-3203
▁cano	-3204
▁caps	-3205
▁cute	-3206
▁duff	-3207
▁goes	-3208
▁knit	-3209
▁lane	-3210
▁menu	-3211
▁muff	-3212
▁nuts	-3213
▁pier	-3214
▁rose	-3215
▁slab	-3216
▁spot	-3217
▁tour	-3218
▁wild	-3219
ements	-3220
icured	-3221
illing	-3222
inning	-3223
▁Black	-3224
▁angle	-3225
▁built	-3226
▁class	-3227
▁could	-3228
▁dusty	-3229
▁early	-3230
▁foggy	-3231
▁found	-3232
▁fried	-3233
▁icing	-3234
▁muddy	-3235
▁overg	-3236
▁parro	-3237
▁piles	-3238
▁racks	-3239
▁resem	-3240
▁royal	-3241
▁sails	-3242
▁sport	-3243
▁stool	-3244
▁trail	-3245
ression	-3246
▁Street	-3247
▁beanie	-3248
▁closer	-3249
▁comple	-3250
▁curled	-3251
▁desert	-3252
▁dotted	-3253
▁dusted	-3254
▁fences	-3255
▁floppy	-3256
▁inches	-3257
▁nature	-3258
▁nearby	-3259
▁olives	-3260
▁pickup	-3261
▁saucer	-3262
▁silhou	-3263
▁skater	-3264
▁sports	-3265
▁stools	-3266
▁straps	-3267
▁sunset	-3268
▁tattoo	-3269
▁tilted	-3270
▁tinted	-3271
▁topped	-3272
▁charact	-3273
▁granite	-3274
▁grilled	-3275
▁himself	-3276
▁indoors	-3277
▁missing	-3278
▁pasture	-3279
▁plugged	-3280
▁protect	-3281
▁rainbow	-3282
▁roadway	-3283
▁sandals	-3284
▁screens	-3285
▁strings	-3286
▁toilets	-3287
▁variety	-3288
▁without	-3289
▁blankets	-3290
▁brownish	-3291
▁catching	-3292
▁daylight	-3293
▁notebook	-3294
▁overhang	-3295
▁Christmas	-3296
▁crouching	-3297
▁extremely	-3298
▁fashioned	-3299
▁motorcycl	-3300
▁sprinkles	-3301
▁positioned	-3302
▁separating	-3303
▁pedestrians	-3304
▁photographer	-3305
ET	-3306
ca	-3307
fl	-3308
ye	-3309
▁7	-3310
ALL	-3311
HIT	-3312
IDE	-3313
aff	-3314
bby	-3315
con	-3316
iet	-3317
ift	-3318
iod	-3319
omy	-3320
ows	-3321
qua	-3322
rim	-3323
ula	-3324
▁Di	-3325
▁Ve	-3326
▁We	-3327
▁pu	-3328
▁zi	-3329
HITE	-3330
Next	-3331
ames	-3332
ened	-3333
eter	-3334
fast	-3335
icop	-3336
ited	-3337
phic	-3338
rass	-3339
rows	-3340
▁Bus	-3341
▁Ele	-3342
▁dec	-3343
▁eas	-3344
▁fin	-3345
▁hum	-3346
▁maj	-3347
▁nat	-3348
▁oil	-3349
▁pud	-3350
▁rep	-3351
▁spi	-3352
▁tax	-3353
▁use	-3354
▁wis	-3355
▁yet	-3356
beled	-3357
dered	-3358
ggies	-3359
ining	-3360
ousel	-3361
pread	-3362
tally	-3363
tured	-3364
uters	-3365
▁That	-3366
▁aqua	-3367
▁calf	-3368
▁clay	-3369
▁corn	-3370
▁cris	-3371
▁eyeb	-3372
▁flip	-3373
▁legg	-3374
▁outl	-3375
▁prof	-3376
▁rams	-3377
▁ripe	-3378
▁scru	-3379
▁semi	-3380
▁stro	-3381
▁tier	-3382
▁tube	-3383
▁when	-3384
iffing	-3385
▁Brown	-3386
▁Numer	-3387
▁WHITE	-3388
▁balan	-3389
▁bleac	-3390
▁cakes	-3391
▁cases	-3392
▁coats	-3393
▁daugh	-3394
▁dense	-3395
▁event	-3396
▁fully	-3397
▁kinds	-3398
▁layer	-3399
▁lemon	-3400
▁panda	-3401
▁quite	-3402
▁roses	-3403
▁snout	-3404
▁speed	-3405
▁stage	-3406
▁texts	-3407
▁waist	-3408
icopter	-3409
irectly	-3410
sleeved	-3411
▁Nobody	-3412
▁attire	-3413
▁before	-3414
▁belong	-3415
▁blazer	-3416
▁cracks	-3417
▁driver	-3418
▁gloomy	-3419
▁harbor	-3420
▁hedges	-3421
▁higher	-3422
▁meters	-3423
▁outlet	-3424
▁period	-3425
▁poster	-3426
▁prints	-3427
▁resort	-3428
▁saying	-3429
▁siting	-3430
▁stains	-3431
▁trails	-3432
▁tunnel	-3433
▁within	-3434
▁wooded	-3435
▁blowing	-3436
▁boulder	-3437
▁burners	-3438
▁country	-3439
▁crowded	-3440
▁cushion	-3441
▁drawing	-3442
▁graphic	-3443
▁handleb	-3444
▁labeled	-3445
▁natural	-3446
▁netting	-3447
▁racquet	-3448
▁serving	-3449
▁skyscra	-3450
▁storage	-3451
▁toaster	-3452
▁veggies	-3453
▁adjacent	-3454
▁backdrop	-3455
▁bookshel	-3456
▁carousel	-3457
▁designed	-3458
▁desserts	-3459
▁features	-3460
▁fixtures	-3461
▁flooring	-3462
▁greenish	-3463
▁includes	-3464
▁parallel	-3465
▁personal	-3466
▁sausages	-3467
▁sniffing	-3468
▁backwards	-3469
▁bedspread	-3470
▁breakfast	-3471
▁extending	-3472
▁gentleman	-3473
▁manicured	-3474
▁overgrown	-3475
▁wristband	-3476
▁Underneath	-3477
▁directions	-3478
▁footprints	-3479
▁helicopter	-3480
▁controllers	-3481
▁advertisement	-3482
▁advertisements	-3483
To	-3484
ah	-3485
bl	-3486
de	-3487
ze	-3488
▁(	-3489
▁Z	-3490
boy	-3491
den	-3492
gon	-3493
ied	-3494
rit	-3495
the	-3496
tre	-3497
was	-3498
▁BO	-3499
▁SU	-3500
▁TW	-3501
▁es	-3502
▁fu	-3503
▁ga	-3504
agon	-3505
alls	-3506
ands	-3507
ased	-3508
bile	-3509
foot	-3510
gest	-3511
ient	-3512
ital	-3513
ized	-3514
made	-3515
rait	-3516
sely	-3517
stal	-3518
sted	-3519
unks	-3520
yard	-3521
▁Var	-3522
▁act	-3523
▁ank	-3524
▁cry	-3525
▁dig	-3526
▁dro	-3527
▁hal	-3528
▁hid	-3529
▁mom	-3530
▁nic	-3531
▁pin	-3532
▁rad	-3533
▁ske	-3534
▁tux	-3535
▁val	-3536
▁war	-3537
▁wii	-3538
allen	-3539
ashes	-3540
eaker	-3541
elves	-3542
ional	-3543
ister	-3544
lowed	-3545
ments	-3546
riend	-3547
tress	-3548
▁Blue	-3549
▁Just	-3550
▁More	-3551
▁clim	-3552
▁dusk	-3553
▁farm	-3554
▁jars	-3555
▁keys	-3556
▁lamb	-3557
▁magn	-3558
▁mats	-3559
▁prov	-3560
▁scre	-3561
▁stri	-3562
▁teen	-3563
▁term	-3564
▁ties	-3565
▁tips	-3566
▁unit	-3567
▁wake	-3568
▁will	-3569
anging	-3570
erside	-3571
lowers	-3572
stance	-3573
verage	-3574
▁Roman	-3575
▁aband	-3576
▁backs	-3577
▁bacon	-3578
▁beaks	-3579
▁brist	-3580
▁burnt	-3581
▁canoe	-3582
▁chalk	-3583
▁chips	-3584
▁delic	-3585
▁emble	-3586
▁major	-3587
▁manes	-3588
▁mural	-3589
▁ornam	-3590
▁panes	-3591
▁quiet	-3592
▁sight	-3593
▁steam	-3594
▁stret	-3595
▁those	-3596
▁thumb	-3597
▁wispy	-3598
ination	-3599
▁appare	-3600
▁bodies	-3601
▁broken	-3602
▁bullet	-3603
▁cables	-3604
▁carrot	-3605
▁closet	-3606
▁cowboy	-3607
▁crates	-3608
▁fields	-3609
▁garnis	-3610
▁giving	-3611
▁glazed	-3612
▁height	-3613
▁hidden	-3614
▁indoor	-3615
▁inform	-3616
▁lifted	-3617
▁police	-3618
▁saddle	-3619
▁states	-3620
▁strips	-3621
▁subway	-3622
▁thread	-3623
tretched	-3624
▁Various	-3625
▁arrange	-3626
▁bathing	-3627
▁dessert	-3628
▁dishwas	-3629
▁dresses	-3630
▁fingers	-3631
▁glowing	-3632
▁halfway	-3633
▁leaving	-3634
▁loading	-3635
▁mirrors	-3636
▁passing	-3637
▁persons	-3638
▁speaker	-3639
▁turning	-3640
▁younger	-3641
▁Numerous	-3642
▁arranged	-3643
▁barefoot	-3644
▁composed	-3645
▁cupcakes	-3646
▁earrings	-3647
▁floating	-3648
▁fountain	-3649
▁landscap	-3650
▁mattress	-3651
▁monument	-3652
▁necklace	-3653
▁portrait	-3654
▁powdered	-3655
▁separate	-3656
▁sideways	-3657
▁strapped	-3658
▁terminal	-3659
▁vertical	-3660
▁Different	-3661
▁bordering	-3662
▁formation	-3663
▁resembles	-3664
▁substance	-3665
▁underside	-3666
▁propellers	-3667
▁surfboards	-3668
▁throughout	-3669
▁information	-3670
▁outstretched	-3671
..	-3672
0.	-3673
IS	-3674
LE	-3675
▁9	-3676
ERS	-3677
THE	-3678
ank	-3679
can	-3680
hol	-3681
ids	-3682
not	-3683
old	-3684
ork	-3685
rel	-3686
usc	-3687
vey	-3688
zen	-3689
▁12	-3690
▁Ad	-3691
▁FR	-3692
▁Sn	-3693
▁Un	-3694
▁tv	-3695
aggy	-3696
angu	-3697
atee	-3698
bike	-3699
boat	-3700
cent	-3701
ests	-3702
igns	-3703
illa	-3704
ique	-3705
kely	-3706
lery	-3707
noon	-3708
stem	-3709
uals	-3710
▁Ben	-3711
▁Big	-3712
▁How	-3713
▁Men	-3714
▁TWO	-3715
▁aud	-3716
▁bud	-3717
▁fil	-3718
▁jar	-3719
▁map	-3720
▁pri	-3721
▁rec	-3722
▁reg	-3723
aches	-3724
agull	-3725
berry	-3726
imney	-3727
itary	-3728
lines	-3729
lling	-3730
oodle	-3731
phalt	-3732
ready	-3733
veyor	-3734
▁Bene	-3735
▁Cauc	-3736
▁STOP	-3737
▁THAT	-3738
▁barn	-3739
▁brid	-3740
▁cans	-3741
▁come	-3742
▁doll	-3743
▁dome	-3744
▁fans	-3745
▁guys	-3746
▁knob	-3747
▁lock	-3748
▁obsc	-3749
▁pend	-3750
▁recl	-3751
▁rims	-3752
▁rise	-3753
▁salt	-3754
▁shot	-3755
▁sill	-3756
▁spir	-3757
▁stub	-3758
▁stud	-3759
▁swir	-3760
▁tiss	-3761
▁toas	-3762
▁tusk	-3763
▁whit	-3764
▁wool	-3765
rought	-3766
selves	-3767
shirts	-3768
▁Eleph	-3769
▁Grass	-3770
▁THere	-3771
▁Tower	-3772
▁Water	-3773
▁barri	-3774
▁blood	-3775
▁crest	-3776
▁crown	-3777
▁flore	-3778
▁focal	-3779
▁forks	-3780
▁groom	-3781
▁guard	-3782
▁lanes	-3783
▁langu	-3784
▁magaz	-3785
▁peaks	-3786
▁reach	-3787
▁scaff	-3788
▁serve	-3789
▁stars	-3790
▁storm	-3791
▁toast	-3792
▁trays	-3793
▁urban	-3794
artment	-3795
covered	-3796
▁bikers	-3797
▁blades	-3798
▁called	-3799
▁choppy	-3800
▁chunks	-3801
▁docked	-3802
▁drapes	-3803
▁duffel	-3804
▁emblem	-3805
▁fallen	-3806
▁feeder	-3807
▁formal	-3808
▁friend	-3809
▁goatee	-3810
▁heater	-3811
▁ladies	-3812
▁marker	-3813
▁mobile	-3814
▁nicely	-3815
▁panels	-3816
▁planks	-3817
▁rimmed	-3818
▁rusted	-3819
▁shaded	-3820
▁shaggy	-3821
▁slacks	-3822
▁spoons	-3823
▁toothp	-3824
▁tricks	-3825
▁valley	-3826
▁wipers	-3827
▁Beneath	-3828
▁already	-3829
▁asphalt	-3830
▁banners	-3831
▁besides	-3832
▁chimney	-3833
▁closely	-3834
▁crystal	-3835
▁cutlery	-3836
▁drivers	-3837
▁extends	-3838
▁hallway	-3839
▁harness	-3840
▁helping	-3841
▁muffins	-3842
▁outline	-3843
▁produce	-3844
▁slender	-3845
▁surfers	-3846
▁topping	-3847
▁transit	-3848
▁wrought	-3849
▁addition	-3850
▁bookcase	-3851
▁brushing	-3852
▁ceilings	-3853
▁commuter	-3854
▁conveyor	-3855
▁counters	-3856
▁daughter	-3857
▁displays	-3858
▁downward	-3859
▁eyebrows	-3860
▁language	-3861
▁leggings	-3862
▁outlined	-3863
▁pedestal	-3864
▁trashcan	-3865
▁triangle	-3866
pendicular	-3867
▁Caucasian	-3868
▁afternoon	-3869
▁backpacks	-3870
▁bleachers	-3871
▁bookshelf	-3872
▁computers	-3873
▁doughnuts	-3874
▁motorbike	-3875
▁splashing	-3876
▁suspended	-3877
▁transport	-3878
▁everything	-3879
▁handlebars	-3880
▁headphones	-3881
▁silhouette	-3882
▁snowboards	-3883
▁storefront	-3884
▁themselves	-3885
▁arrangement	-3886
▁individuals	-3887
▁overlooking	-3888
▁skyscrapers	-3889
▁traditional	-3890
EL	-3891
He	-3892
IM	-3893
UE	-3894
UT	-3895
ai	-3896
ax	-3897
dd	-3898
oc	-3899
og	-3900
tt	-3901
▁,	-3902
▁X	-3903
ALK	-3904
AND	-3905
Col	-3906
amb	-3907
box	-3908
dge	-3909
ebo	-3910
ggs	-3911
ini	-3912
lon	-3913
lor	-3914
mbs	-3915
pan	-3916
rat	-3917
zzy	-3918
▁10	-3919
▁GR	-3920
▁Ob	-3921
▁Pl	-3922
▁Ro	-3923
▁SH	-3924
▁Te	-3925
▁US	-3926
Cola	-3927
aste	-3928
bing	-3929
cess	-3930
cils	-3931
iler	-3932
iter	-3933
leep	-3934
lets	-3935
lies	-3936
like	-3937
omin	-3938
omot	-3939
oose	-3940
ract	-3941
ster	-3942
ully	-3943
▁Few	-3944
▁For	-3945
▁SHE	-3946
▁SUV	-3947
▁bad	-3948
▁beg	-3949
▁cig	-3950
▁cuc	-3951
▁cyl	-3952
▁dow	-3953
▁fer	-3954
▁hip	-3955
▁lip	-3956
▁mor	-3957
▁mul	-3958
▁own	-3959
▁pus	-3960
▁ram	-3961
▁rod	-3962
▁sha	-3963
▁sin	-3964
▁teh	-3965
▁vac	-3966
acked	-3967
adows	-3968
akers	-3969
annel	-3970
borne	-3971
chair	-3972
ckets	-3973
cture	-3974
ening	-3975
etric	-3976
ience	-3977
lower	-3978
scent	-3979
ucked	-3980
where	-3981
▁BLUE	-3982
▁Snow	-3983
▁ador	-3984
▁aged	-3985
▁alot	-3986
▁arri	-3987
▁bang	-3988
▁buff	-3989
▁dang	-3990
▁dest	-3991
▁east	-3992
▁easy	-3993
▁eggs	-3994
▁gown	-3995
▁hear	-3996
▁inst	-3997
▁late	-3998
▁mint	-3999
▁mugs	-4000
▁nine	-4001
▁obst	-4002
▁pane	-4003
▁pear	-4004
▁radi	-4005
▁robe	-4006
▁vend	-4007
▁vill	-4008
agonal	-4009
etween	-4010
hicles	-4011
ightst	-4012
olding	-4013
orting	-4014
though	-4015
umbers	-4016
vering	-4017
▁Boats	-4018
▁ankle	-4019
▁baked	-4020
▁ballo	-4021
▁beams	-4022
▁blade	-4023
▁booth	-4024
▁buggy	-4025
▁casts	-4026
▁chefs	-4027
▁condu	-4028
▁crisp	-4029
▁eaten	-4030
▁fourt	-4031
▁fuzzy	-4032
▁great	-4033
▁grout	-4034
▁human	-4035
▁maker	-4036
▁model	-4037
▁noses	-4038
▁party	-4039
▁pitch	-4040
▁plush	-4041
▁rural	-4042
▁score	-4043
▁seeds	-4044
▁seven	-4045
▁shine	-4046
▁steak	-4047
▁trave	-4048
▁vests	-4049
▁wired	-4050
omotive	-4051
▁asleep	-4052
▁barric	-4053
▁blouse	-4054
▁breast	-4055
▁cannot	-4056
▁castle	-4057
▁cigare	-4058
▁compet	-4059
▁cookie	-4060
▁gazebo	-4061
▁kettle	-4062
▁likely	-4063
▁mainly	-4064
▁notice	-4065
▁parrot	-4066
▁pastel	-4067
▁poodle	-4068
▁preser	-4069
▁provid	-4070
▁puddle	-4071
▁remain	-4072
▁simple	-4073
▁spiral	-4074
▁switch	-4075
▁system	-4076
▁tissue	-4077
▁transp	-4078
▁wading	-4079
▁waving	-4080
▁zipper	-4081
idential	-4082
▁Flowers	-4083
▁Shadows	-4084
▁airline	-4085
▁barrier	-4086
▁blueish	-4087
▁digital	-4088
▁framing	-4089
▁handler	-4090
▁jerseys	-4091
▁kicking	-4092
▁morning	-4093
▁package	-4094
▁partial	-4095
▁pebbles	-4096
▁peering	-4097
▁pendant	-4098
▁pickles	-4099
▁planted	-4100
▁printer	-4101
▁provide	-4102
▁pumpkin	-4103
▁raining	-4104
▁sausage	-4105
▁selling	-4106
▁skyline	-4107
▁streaks	-4108
▁travels	-4109
▁upwards	-4110
▁village	-4111
▁Directly	-4112
▁Overhead	-4113
▁Vehicles	-4114
▁airborne	-4115
▁audience	-4116
▁bicycles	-4117
▁bristles	-4118
▁carpeted	-4119
▁creating	-4120
▁dividing	-4121
▁indicate	-4122
▁majority	-4123
▁military	-4124
▁packages	-4125
▁products	-4126
▁railings	-4127
▁scooters	-4128
▁shutters	-4129
▁stairway	-4130
▁abandoned	-4131
▁cupboards	-4132
▁separated	-4133
▁separates	-4134
▁shoreline	-4135
▁sprinkled	-4136
▁dishwasher	-4137
▁evergreens	-4138
▁locomotive	-4139
▁vertically	-4140
▁perpendicular	-4141
",	-4142
CH	-4143
US	-4144
VD	-4145
ef	-4146
ex	-4147
ki	-4148
so	-4149
▁x	-4150
AIL	-4151
ATS	-4152
OLD	-4153
REE	-4154
ams	-4155
com	-4156
cra	-4157
gan	-4158
nes	-4159
orm	-4160
sts	-4161
ulp	-4162
unt	-4163
vas	-4164
zza	-4165
▁"2	-4166
▁By	-4167
▁Is	-4168
▁Le	-4169
▁PL	-4170
▁RE	-4171
▁SM	-4172
▁Wh	-4173
▁hi	-4174
▁iv	-4175
▁us	-4176
abor	-4177
aged	-4178
ales	-4179
ares	-4180
bber	-4181
cern	-4182
chan	-4183
cker	-4184
eled	-4185
erra	-4186
hand	-4187
ieve	-4188
ises	-4189
kini	-4190
lope	-4191
mper	-4192
nequ	-4193
oles	-4194
onna	-4195
pect	-4196
pple	-4197
shes	-4198
used	-4199
uses	-4200
wing	-4201
work	-4202
▁Can	-4203
▁DVD	-4204
▁Gir	-4205
▁Gra	-4206
▁HAS	-4207
▁MAN	-4208
▁Man	-4209
▁Par	-4210
▁Sur	-4211
▁Whe	-4212
▁add	-4213
▁bol	-4214
▁dol	-4215
▁flu	-4216
▁hut	-4217
▁ing	-4218
▁jud	-4219
▁now	-4220
▁odd	-4221
▁sed	-4222
▁typ	-4223
allic	-4224
almon	-4225
amboo	-4226
ients	-4227
illet	-4228
inals	-4229
ntown	-4230
orama	-4231
oting	-4232
rence	-4233
stone	-4234
strip	-4235
table	-4236
ution	-4237
▁aren	-4238
▁bind	-4239
▁bold	-4240
▁boot	-4241
▁cent	-4242
▁deer	-4243
▁eats	-4244
▁elev	-4245
▁fake	-4246
▁fest	-4247
▁geom	-4248
▁gets	-4249
▁hind	-4250
▁hoop	-4251
▁jeep	-4252
▁jets	-4253
▁laid	-4254
▁limb	-4255
▁load	-4256
▁pans	-4257
▁pant	-4258
▁peel	-4259
▁race	-4260
▁raft	-4261
▁slow	-4262
▁soil	-4263
▁sold	-4264
▁spat	-4265
▁sugg	-4266
▁taxi	-4267
▁toys	-4268
▁trip	-4269
▁vast	-4270
ailing	-4271
erries	-4272
haired	-4273
redded	-4274
ugging	-4275
ulance	-4276
uminum	-4277
▁Apple	-4278
▁BLACK	-4279
▁Bears	-4280
▁Obama	-4281
▁Sheep	-4282
▁alarm	-4283
▁amber	-4284
▁bangs	-4285
▁based	-4286
▁blind	-4287
▁bloom	-4288
▁brake	-4289
▁comes	-4290
▁curve	-4291
▁dimly	-4292
▁drain	-4293
▁drops	-4294
▁emplo	-4295
▁filed	-4296
▁flush	-4297
▁grain	-4298
▁hours	-4299
▁ivory	-4300
▁leans	-4301
▁ledge	-4302
▁maybe	-4303
▁might	-4304
▁motel	-4305
▁mulch	-4306
▁outer	-4307
▁peace	-4308
▁piled	-4309
▁plent	-4310
▁ramps	-4311
▁recor	-4312
▁relax	-4313
▁scrat	-4314
▁sculp	-4315
▁shops	-4316
▁sided	-4317
▁slate	-4318
▁slick	-4319
▁slide	-4320
▁smart	-4321
▁spiky	-4322
▁split	-4323
▁teams	-4324
▁terra	-4325
▁thing	-4326
▁tiger	-4327
▁total	-4328
▁twigs	-4329
aborate	-4330
onnaise	-4331
▁Wheels	-4332
▁aircra	-4333
▁bamboo	-4334
▁barbed	-4335
▁bikini	-4336
▁bridle	-4337
▁buffet	-4338
▁canvas	-4339
▁capped	-4340
▁cleats	-4341
▁cobble	-4342
▁cruise	-4343
▁crumbs	-4344
▁dandel	-4345
▁drives	-4346
▁enough	-4347
▁fender	-4348
▁fourth	-4349
▁greens	-4350
▁handed	-4351
▁lemons	-4352
▁mechan	-4353
▁muzzle	-4354
▁nearly	-4355
▁packed	-4356
▁paddle	-4357
▁pillar	-4358
▁pineap	-4359
▁places	-4360
▁played	-4361
▁poking	-4362
▁promin	-4363
▁pushed	-4364
▁repres	-4365
▁riders	-4366
▁ridges	-4367
▁salmon	-4368
▁shines	-4369
▁specks	-4370
▁stored	-4371
▁strewn	-4372
▁strong	-4373
▁tucked	-4374
▁unique	-4375
▁vacant	-4376
▁walled	-4377
▁worker	-4378
rounding	-4379
tainment	-4380
▁Hanging	-4381
▁However	-4382
▁amongst	-4383
▁antique	-4384
▁archite	-4385
▁believe	-4386
▁bunches	-4387
▁butterf	-4388
▁chandel	-4389
▁checked	-4390
▁clearly	-4391
▁clutter	-4392
▁console	-4393
▁couches	-4394
▁details	-4395
▁diorama	-4396
▁farther	-4397
▁filling	-4398
▁focused	-4399
▁foreign	-4400
▁freight	-4401
▁frosted	-4402
▁licking	-4403
▁magnets	-4404
▁mannequ	-4405
▁nightst	-4406
▁officer	-4407
▁peeking	-4408
▁profess	-4409
▁skillet	-4410
▁smoking	-4411
▁symbols	-4412
▁toasted	-4413
▁trailer	-4414
▁typical	-4415
▁urinals	-4416
▁varying	-4417
▁watches	-4418
▁Airlines	-4419
▁Attached	-4420
▁Elephant	-4421
▁Everyone	-4422
▁aluminum	-4423
▁assorted	-4424
▁climbing	-4425
▁cushions	-4426
▁doughnut	-4427
▁downtown	-4428
▁followed	-4429
▁metallic	-4430
▁overpass	-4431
▁pictured	-4432
▁radiator	-4433
▁sailboat	-4434
▁snowsuit	-4435
▁starting	-4436
▁stripped	-4437
▁ambulance	-4438
▁appearing	-4439
▁balancing	-4440
▁cluttered	-4441
▁conductor	-4442
▁courtyard	-4443
▁cucumbers	-4444
▁delicious	-4445
▁elaborate	-4446
▁exception	-4447
▁geometric	-4448
▁ornaments	-4449
▁projector	-4450
▁providing	-4451
▁sculpture	-4452
▁seasoning	-4453
▁supported	-4454
▁basketball	-4455
▁characters	-4456
▁expression	-4457
▁wristbands	-4458
▁compartment	-4459
▁destination	-4460
▁scaffolding	-4461
▁horizontally	-4462
▁snowboarders	-4463
▁streetlights	-4464
▁toothbrushes	-4465
▁entertainment	-4466
▁motorcyclists	-4467
,.	-4468
10	-4469
5.	-4470
GE	-4471
OO	-4472
Ph	-4473
RI	-4474
TA	-4475
TS	-4476
VE	-4477
aw	-4478
cc	-4479
pa	-4480
ys	-4481
EAR	-4482
INK	-4483
LOW	-4484
ONG	-4485
VER	-4486
acy	-4487
bly	-4488
but	-4489
cle	-4490
ead	-4491
ept	-4492
isc	-4493
ism	-4494
its	-4495
ker	-4496
mat	-4497
nds	-4498
nze	-4499
oam	-4500
oid	-4501
pos	-4502
rew	-4503
str	-4504
tru	-4505
tte	-4506
uch	-4507
ums	-4508
xim	-4509
yee	-4510
zer	-4511
▁AT	-4512
▁Av	-4513
▁BU	-4514
▁Mc	-4515
▁NW	-4516
▁PE	-4517
▁Ph	-4518
▁RO	-4519
▁So	-4520
▁av	-4521
ACKG	-4522
acle	-4523
ager	-4524
agne	-4525
aint	-4526
anan	-4527
anta	-4528
atme	-4529
back	-4530
bies	-4531
caps	-4532
ceed	-4533
ckey	-4534
coat	-4535
ells	-4536
ener	-4537
hest	-4538
ider	-4539
iles	-4540
lest	-4541
mmer	-4542
ooks	-4543
ored	-4544
orth	-4545
orts	-4546
ples	-4547
seum	-4548
tery	-4549
ulif	-4550
unch	-4551
▁Eng	-4552
▁Far	-4553
▁Gre	-4554
▁Ind	-4555
▁New	-4556
▁OUT	-4557
▁RED	-4558
▁Sil	-4559
▁Ski	-4560
▁Zeb	-4561
▁buy	-4562
▁chi	-4563
▁deb	-4564
▁dem	-4565
▁dre	-4566
▁fit	-4567
▁fix	-4568
▁hur	-4569
▁ins	-4570
▁jam	-4571
▁mos	-4572
▁occ	-4573
▁oct	-4574
▁pod	-4575
▁raw	-4576
▁tge	-4577
▁unf	-4578
▁unt	-4579
▁via	-4580
▁vol	-4581
▁web	-4582
▁won	-4583
ERSON	-4584
atter	-4585
avily	-4586
aying	-4587
bbery	-4588
brown	-4589
centr	-4590
elfie	-4591
eline	-4592
ented	-4593
haust	-4594
herry	-4595
holst	-4596
iment	-4597
izing	-4598
leton	-4599
mpled	-4600
onies	-4601
rised	-4602
uffle	-4603
utral	-4604
▁Brit	-4605
▁Coca	-4606
▁Gira	-4607
▁HOLD	-4608
▁Half	-4609
▁Nike	-4610
▁PLAN	-4611
▁Pink	-4612
▁SIDE	-4613
▁SINK	-4614
▁Stop	-4615
▁Tree	-4616
▁WALK	-4617
▁blow	-4618
▁brim	-4619
▁bulb	-4620
▁call	-4621
▁cauc	-4622
▁chee	-4623
▁clip	-4624
▁cool	-4625
▁dais	-4626
▁desc	-4627
▁grow	-4628
▁happ	-4629
▁hash	-4630
▁king	-4631
▁last	-4632
▁lids	-4633
▁ling	-4634
▁live	-4635
▁mass	-4636
▁meas	-4637
▁musc	-4638
▁need	-4639
▁ostr	-4640
▁pean	-4641
▁peas	-4642
▁pens	-4643
▁priv	-4644
▁scen	-4645
▁seal	-4646
▁sell	-4647
▁slat	-4648
▁spec	-4649
▁stal	-4650
▁unlo	-4651
▁ways	-4652
ackets	-4653
allest	-4654
ananas	-4655
atmeal	-4656
ention	-4657
flakes	-4658
imeter	-4659
inging	-4660
raying	-4661
ricate	-4662
rimmed	-4663
ructed	-4664
▁BACKG	-4665
▁SMALL	-4666
▁alley	-4667
▁anten	-4668
▁baggy	-4669
▁bands	-4670
▁brand	-4671
▁bride	-4672
▁build	-4673
▁champ	-4674
▁colle	-4675
▁craft	-4676
▁desks	-4677
▁edged	-4678
▁exter	-4679
▁faced	-4680
▁ferry	-4681
▁flies	-4682
▁foamy	-4683
▁foods	-4684
▁gable	-4685
▁globe	-4686
▁gloss	-4687
▁lapel	-4688
▁limit	-4689
▁micro	-4690
▁needs	-4691
▁obser	-4692
▁order	-4693
▁organ	-4694
▁panel	-4695
▁perfe	-4696
▁plums	-4697
▁press	-4698
▁puppy	-4699
▁reins	-4700
▁sheer	-4701
▁since	-4702
▁snake	-4703
▁spire	-4704
▁stump	-4705
▁subur	-4706
▁swung	-4707
▁tabby	-4708
▁threw	-4709
▁tight	-4710
▁tongs	-4711
▁torso	-4712
▁touch	-4713
▁years	-4714
ational	-4715
ceeding	-4716
inesses	-4717
ortment	-4718
▁Bushes	-4719
▁GROUND	-4720
▁Gravel	-4721
▁PERSON	-4722
▁Silver	-4723
▁United	-4724
▁arches	-4725
▁arrows	-4726
▁bandan	-4727
▁barrel	-4728
▁bronze	-4729
▁bubble	-4730
▁burned	-4731
▁carved	-4732
▁caulif	-4733
▁cinder	-4734
▁croiss	-4735
▁debris	-4736
▁determ	-4737
▁dragon	-4738
▁facial	-4739
▁father	-4740
▁frothy	-4741
▁garlic	-4742
▁grocer	-4743
▁halves	-4744
▁hardly	-4745
▁headed	-4746
▁ingred	-4747
▁longer	-4748
▁museum	-4749
▁parent	-4750
▁peeled	-4751
▁phones	-4752
▁pickle	-4753
▁resemb	-4754
▁selfie	-4755
▁series	-4756
▁slopes	-4757
▁spices	-4758
▁summer	-4759
▁tablet	-4760
▁tights	-4761
▁tshirt	-4762
cernible	-4763
istening	-4764
ountains	-4765
ximately	-4766
▁Bananas	-4767
▁Besides	-4768
▁Between	-4769
▁British	-4770
▁Through	-4771
▁apparel	-4772
▁archway	-4773
▁bedding	-4774
▁berries	-4775
▁boarder	-4776
▁bouquet	-4777
▁bowling	-4778
▁bubbles	-4779
▁caboose	-4780
▁chipped	-4781
▁company	-4782
▁cookies	-4783
▁depicts	-4784
▁distant	-4785
▁exhaust	-4786
▁exposed	-4787
▁fashion	-4788
▁females	-4789
▁figures	-4790
▁firetru	-4791
▁fishing	-4792
▁florets	-4793
▁flowing	-4794
▁garnish	-4795
▁handled	-4796
▁hangers	-4797
▁heavily	-4798
▁however	-4799
▁hugging	-4800
▁largest	-4801
▁milling	-4802
▁neutral	-4803
▁oatmeal	-4804
▁ostrich	-4805
▁peeling	-4806
▁pencils	-4807
▁planter	-4808
▁platter	-4809
▁posters	-4810
▁pottery	-4811
▁powered	-4812
▁program	-4813
▁rocking	-4814
▁seagull	-4815
▁serious	-4816
▁shakers	-4817
▁shuffle	-4818
▁shuttle	-4819
▁sloping	-4820
▁spatula	-4821
▁tallest	-4822
▁texture	-4823
▁upholst	-4824
▁utility	-4825
▁vendors	-4826
▁winding	-4827
▁workers	-4828
▁wrapper	-4829
▁Sunlight	-4830
▁aircraft	-4831
▁although	-4832
▁armchair	-4833
▁balloons	-4834
▁beverage	-4835
▁blocking	-4836
▁canister	-4837
▁casually	-4838
▁charging	-4839
▁coloring	-4840
▁concentr	-4841
▁contents	-4842
▁crumpled	-4843
▁customer	-4844
▁cylinder	-4845
▁dangling	-4846
▁deserted	-4847
▁elevated	-4848
▁employee	-4849
▁hovering	-4850
▁littered	-4851
▁magazine	-4852
▁obscured	-4853
▁obstacle	-4854
▁officers	-4855
▁patterns	-4856
▁peaceful	-4857
▁pitchers	-4858
▁progress	-4859
▁pumpkins	-4860
▁recently	-4861
▁restroom	-4862
▁shredded	-4863
▁skeleton	-4864
▁smallest	-4865
▁speaking	-4866
▁splashes	-4867
▁sporting	-4868
▁watering	-4869
▁wrapping	-4870
▁wrinkled	-4871
▁wrinkles	-4872
▁Mountains	-4873
▁attention	-4874
▁balconies	-4875
▁beginning	-4876
▁billboard	-4877
▁caucasian	-4878
▁champagne	-4879
▁character	-4880
▁classroom	-4881
▁condition	-4882
▁creatures	-4883
▁customers	-4884
▁directing	-4885
▁intricate	-4886
▁landscape	-4887
▁measuring	-4888
▁nighttime	-4889
▁paintings	-4890
▁perimeter	-4891
▁prominent	-4892
▁toothpick	-4893
▁BACKGROUND	-4894
▁Everything	-4895
▁additional	-4896
▁assortment	-4897
▁everywhere	-4898
▁foundation	-4899
▁highlights	-4900
▁lighthouse	-4901
▁mayonnaise	-4902
▁microphone	-4903
▁noticeable	-4904
▁particular	-4905
▁pedestrian	-4906
▁proceeding	-4907
▁reflective	-4908
▁snowflakes	-4909
▁splattered	-4910
▁structures	-4911
▁suspenders	-4912
▁toiletries	-4913
▁travelling	-4914
▁Surrounding	-4915
▁approaching	-4916
▁cauliflower	-4917
▁countertops	-4918
▁discernible	-4919
▁ingredients	-4920
▁reflections	-4921
▁residential	-4922
▁underground	-4923
▁motorcyclist	-4924
▁approximately	-4925
▁transportation	-4926
,"	-4927
0'	-4928
00	-4929
1.	-4930
:3	-4931
AP	-4932
EM	-4933
IC	-4934
IG	-4935
OG	-4936
OS	-4937
gu	-4938
kn	-4939
ARK	-4940
Don	-4941
ORS	-4942
OUN	-4943
OWN	-4944
One	-4945
PEN	-4946
Two	-4947
aic	-4948
ari	-4949
arn	-4950
bit	-4951
coo	-4952
cur	-4953
cut	-4954
doh	-4955
edo	-4956
hib	-4957
ina	-4958
iol	-4959
ith	-4960
lop	-4961
luc	-4962
mac	-4963
nts	-4964
ont	-4965
ops	-4966
ora	-4967
oss	-4968
ots	-4969
par	-4970
pie	-4971
pse	-4972
rof	-4973
rre	-4974
sty	-4975
ten	-4976
tie	-4977
tra	-4978
udd	-4979
urn	-4980
wel	-4981
▁11	-4982
▁14	-4983
▁18	-4984
▁Af	-4985
▁BY	-4986
▁Fl	-4987
▁Lu	-4988
▁Mo	-4989
▁TR	-4990
▁Up	-4991
▁cu	-4992
▁et	-4993
▁ka	-4994
▁ke	-4995
▁os	-4996
ETER	-4997
INGS	-4998
OPLE	-4999
SIDE	-5000
They	-5001
aked	-5002
amps	-5003
aped	-5004
blue	-5005
card	-5006
dles	-5007
etah	-5008
ffix	-5009
gant	-5010
haps	-5011
iced	-5012
icip	-5013
iers	-5014
imes	-5015
iner	-5016
itar	-5017
itty	-5018
link	-5019
lows	-5020
neck	-5021
ntly	-5022
oped	-5023
outs	-5024
owed	-5025
quee	-5026
rest	-5027
rise	-5028
roll	-5029
rons	-5030
shed	-5031
tend	-5032
tion	-5033
toon	-5034
uini	-5035
uish	-5036
unge	-5037
▁But	-5038
▁Con	-5039
▁Del	-5040
▁Hor	-5041
▁Kit	-5042
▁Mot	-5043
▁Out	-5044
▁WAT	-5045
▁YEL	-5046
▁aer	-5047
▁age	-5048
▁anc	-5049
▁ans	-5050
▁bay	-5051
▁cyc	-5052
▁dev	-5053
▁dru	-5054
▁enc	-5055
▁esc	-5056
▁fed	-5057
▁fle	-5058
▁gel	-5059
▁gut	-5060
▁hub	-5061
▁iPh	-5062
▁imp	-5063
▁jag	-5064
▁jug	-5065
▁jut	-5066
▁lie	-5067
▁mad	-5068
▁new	-5069
▁ott	-5070
▁pal	-5071
▁pom	-5072
▁pop	-5073
▁que	-5074
▁rag	-5075
▁tar	-5076
▁tot	-5077
▁tul	-5078
▁ver	-5079
▁vio	-5080
▁zip	-5081
agels	-5082
aping	-5083
arent	-5084
asing	-5085
asket	-5086
aters	-5087
attle	-5088
bbing	-5089
bitat	-5090
color	-5091
ctors	-5092
edded	-5093
elles	-5094
erous	-5095
field	-5096
fully	-5097
icine	-5098
inach	-5099
inese	-5100
ising	-5101
isted	-5102
oleum	-5103
opard	-5104
piece	-5105
rical	-5106
tilla	-5107
uated	-5108
unkin	-5109
urtle	-5110
vings	-5111
vious	-5112
▁Bird	-5113
▁City	-5114
▁Cows	-5115
▁DOWN	-5116
▁FROM	-5117
▁GRAY	-5118
▁ITEM	-5119
▁LONG	-5120
▁Long	-5121
▁None	-5122
▁OPEN	-5123
▁Star	-5124
▁Then	-5125
▁Thre	-5126
▁Wind	-5127
▁abst	-5128
▁alco	-5129
▁best	-5130
▁bite	-5131
▁brun	-5132
▁brus	-5133
▁buns	-5134
▁bunt	-5135
▁cact	-5136
▁cafe	-5137
▁comb	-5138
▁cree	-5139
▁cubs	-5140
▁date	-5141
▁dips	-5142
▁dull	-5143
▁enve	-5144
▁exit	-5145
▁fift	-5146
▁file	-5147
▁fine	-5148
▁flav	-5149
▁hing	-5150
▁hook	-5151
▁jogg	-5152
▁lace	-5153
▁lany	-5154
▁less	-5155
▁lips	-5156
▁loaf	-5157
▁lost	-5158
▁moon	-5159
▁move	-5160
▁nail	-5161
▁nest	-5162
▁none	-5163
▁nood	-5164
▁oars	-5165
▁omin	-5166
▁pige	-5167
▁pilo	-5168
▁pose	-5169
▁pred	-5170
▁rece	-5171
▁rich	-5172
▁roam	-5173
▁rods	-5174
▁rump	-5175
▁safe	-5176
▁sash	-5177
▁slim	-5178
▁smir	-5179
▁smud	-5180
▁tale	-5181
▁teap	-5182
▁tons	-5183
▁torn	-5184
▁trop	-5185
▁user	-5186
▁vane	-5187
▁vans	-5188
▁viol	-5189
▁void	-5190
▁ware	-5191
▁wrap	-5192
▁yarn	-5193
anding	-5194
apping	-5195
ashing	-5196
cessed	-5197
cooked	-5198
decker	-5199
esting	-5200
ffixed	-5201
ighbor	-5202
iscuit	-5203
lucent	-5204
merged	-5205
nesses	-5206
persed	-5207
rofoam	-5208
shaped	-5209
sleeve	-5210
stache	-5211
sticks	-5212
unging	-5213
usting	-5214
▁Afric	-5215
▁BOATS	-5216
▁Clock	-5217
▁Eight	-5218
▁Homes	-5219
▁METER	-5220
▁PLANE	-5221
▁Power	-5222
▁STAND	-5223
▁Seven	-5224
▁Spect	-5225
▁Train	-5226
▁While	-5227
▁accor	-5228
▁array	-5229
▁banks	-5230
▁blend	-5231
▁brass	-5232
▁brief	-5233
▁bulbs	-5234
▁bulls	-5235
▁capit	-5236
▁cards	-5237
▁clump	-5238
▁coupe	-5239
▁creme	-5240
▁diced	-5241
▁dozen	-5242
▁earth	-5243
▁embro	-5244
▁exhib	-5245
▁fight	-5246
▁figur	-5247
▁flagp	-5248
▁flown	-5249
▁gates	-5250
▁gener	-5251
▁glare	-5252
▁glaze	-5253
▁goods	-5254
▁grown	-5255
▁hairy	-5256
▁hooks	-5257
▁hoses	-5258
▁inner	-5259
▁inser	-5260
▁kitty	-5261
▁known	-5262
▁laces	-5263
▁lifts	-5264
▁maple	-5265
▁melon	-5266
▁mowed	-5267
▁nails	-5268
▁occup	-5269
▁onion	-5270
▁onloo	-5271
▁paras	-5272
▁peach	-5273
▁pulls	-5274
▁purch	-5275
▁queen	-5276
▁rings	-5277
▁rises	-5278
▁route	-5279
▁scale	-5280
▁sedan	-5281
▁shell	-5282
▁sleep	-5283
▁sorts	-5284
▁squin	-5285
▁sweet	-5286
▁taxis	-5287
▁thigh	-5288
▁tired	-5289
▁tubes	-5290
▁vines	-5291
▁vinyl	-5292
▁visit	-5293
▁wagon	-5294
▁wraps	-5295
ception	-5296
ference	-5297
▁Indian	-5298
▁Lights	-5299
▁PEOPLE	-5300
▁YELLOW	-5301
▁Yellow	-5302
▁actual	-5303
▁aerial	-5304
▁angled	-5305
▁anyone	-5306
▁aprons	-5307
▁attach	-5308
▁buried	-5309
▁casual	-5310
▁cherry	-5311
▁contra	-5312
▁curves	-5313
▁decals	-5314
▁descri	-5315
▁dreary	-5316
▁elbows	-5317
▁etched	-5318
▁fixing	-5319
▁formed	-5320
▁frozen	-5321
▁gabled	-5322
▁gazing	-5323
▁glossy	-5324
▁groups	-5325
▁guitar	-5326
▁gutter	-5327
▁halter	-5328
▁hearts	-5329
▁hiding	-5330
▁hurdle	-5331
▁iPhone	-5332
▁jagged	-5333
▁jockey	-5334
▁jumper	-5335
▁kicked	-5336
▁labels	-5337
▁liquor	-5338
▁litter	-5339
▁mantle	-5340
▁midway	-5341
▁moment	-5342
▁monkey	-5343
▁mosaic	-5344
▁parach	-5345
▁peanut	-5346
▁petals	-5347
▁picket	-5348
▁piping	-5349
▁plenty	-5350
▁podium	-5351
▁racing	-5352
▁reigns	-5353
▁rustic	-5354
▁scroll	-5355
▁served	-5356
▁shaven	-5357
▁slides	-5358
▁slowly	-5359
▁smiles	-5360
▁snacks	-5361
▁sphere	-5362
▁stacks	-5363
▁stalks	-5364
▁stalls	-5365
▁stance	-5366
▁stares	-5367
▁stormy	-5368
▁styled	-5369
▁tripod	-5370
▁tulips	-5371
▁turtle	-5372
▁tuxedo	-5373
▁typing	-5374
▁unmade	-5375
▁volley	-5376
▁wallet	-5377
▁waterf	-5378
▁waters	-5379
▁weight	-5380
▁whites	-5381
▁womans	-5382
attering	-5383
▁America	-5384
▁Chinese	-5385
▁Traffic	-5386
▁Windows	-5387
▁address	-5388
▁adorned	-5389
▁affixed	-5390
▁ancient	-5391
▁artwork	-5392
▁average	-5393
▁batting	-5394
▁biggest	-5395
▁braided	-5396
▁browned	-5397
▁cabbage	-5398
▁cameras	-5399
▁carries	-5400
▁cartoon	-5401
▁channel	-5402
▁cheetah	-5403
▁collage	-5404
▁compact	-5405
▁consist	-5406
▁contact	-5407
▁cracked	-5408
▁created	-5409
▁crushed	-5410
▁daisies	-5411
▁devices	-5412
▁dinette	-5413
▁divided	-5414
▁divider	-5415
▁earring	-5416
▁elegant	-5417
▁forming	-5418
▁freezer	-5419
▁glaring	-5420
▁goldish	-5421
▁gravels	-5422
▁habitat	-5423
▁herself	-5424
▁holders	-5425
▁incline	-5426
▁instead	-5427
▁lanyard	-5428
▁letting	-5429
▁lightly	-5430
▁linings	-5431
▁marbled	-5432
▁markers	-5433
▁matches	-5434
▁noodles	-5435
▁ominous	-5436
▁ottoman	-5437
▁outfits	-5438
▁packets	-5439
▁parrots	-5440
▁peaking	-5441
▁perhaps	-5442
▁playdoh	-5443
▁pockets	-5444
▁pouring	-5445
▁privacy	-5446
▁process	-5447
▁profile	-5448
▁scarves	-5449
▁scenery	-5450
▁seating	-5451
▁shelter	-5452
▁skaters	-5453
▁slicked	-5454
▁snowing	-5455
▁spinach	-5456
▁squared	-5457
▁stretch	-5458
▁stubble	-5459
▁teenage	-5460
▁thicker	-5461
▁thinner	-5462
▁thought	-5463
▁totally	-5464
▁utensil	-5465
▁vanilla	-5466
▁whipped	-5467
▁Giraffes	-5468
▁Standing	-5469
▁abstract	-5470
▁arriving	-5471
▁balanced	-5472
▁boarders	-5473
▁boulders	-5474
▁brunette	-5475
▁captured	-5476
▁carvings	-5477
▁centered	-5478
▁cleaning	-5479
▁complete	-5480
▁depicted	-5481
▁diagonal	-5482
▁diamonds	-5483
▁drawings	-5484
▁dressing	-5485
▁embedded	-5486
▁entirely	-5487
▁exterior	-5488
▁finished	-5489
▁friendly	-5490
▁gazelles	-5491
▁grabbing	-5492
▁intently	-5493
▁linguini	-5494
▁linoleum	-5495
▁maintain	-5496
▁medicine	-5497
▁neighbor	-5498
▁overalls	-5499
▁paneling	-5500
▁pinstrip	-5501
▁placemat	-5502
▁portions	-5503
▁predomin	-5504
▁preserve	-5505
▁recessed	-5506
▁reflects	-5507
▁relaxing	-5508
▁settings	-5509
▁shooting	-5510
▁situated	-5511
▁spinning	-5512
▁spraying	-5513
▁steering	-5514
▁stepping	-5515
▁supplies	-5516
▁textured	-5517
▁toiletry	-5518
▁tortilla	-5519
▁tourists	-5520
▁training	-5521
▁tropical	-5522
▁barricade	-5523
▁cigarette	-5524
▁cushioned	-5525
▁depicting	-5526
▁eachother	-5527
▁firetruck	-5528
▁following	-5529
▁harnesses	-5530
▁indicates	-5531
▁mannequin	-5532
▁miniature	-5533
▁moustache	-5534
▁projected	-5535
▁reception	-5536
▁reclining	-5537
▁shrubbery	-5538
▁streaming	-5539
▁styrofoam	-5540
▁submerged	-5541
▁underpass	-5542
▁unloading	-5543
▁wakeboard	-5544
▁Spectators	-5545
▁billboards	-5546
▁businesses	-5547
▁chandelier	-5548
▁chopsticks	-5549
▁playground	-5550
▁resembling	-5551
▁scattering	-5552
▁scoreboard	-5553
▁strawberry	-5554
▁suggesting	-5555
▁advertising	-5556
▁blueberries	-5557
▁cobblestone	-5558
▁competition	-5559
▁constructed	-5560
▁directional	-5561
▁nightstands	-5562
▁translucent	-5563
▁transparent	-5564
▁upholstered	-5565
▁architecture	-5566
▁illuminating	-5567
▁professional	-5568
0"	-5569
12	-5570
3"	-5571
43	-5572
74	-5573
75	-5574
9.	-5575
98	-5576
:5	-5577
EE	-5578
LF	-5579
OK	-5580
TH	-5581
Th	-5582
UM	-5583
Un	-5584
hu	-5585
lf	-5586
my	-5587
sp	-5588
ua	-5589
vo	-5590
xy	-5591
ym	-5592
▁#	-5593
▁Q	-5594
ADS	-5595
ARD	-5596
ASS	-5597
IGN	-5598
ILD	-5599
INS	-5600
IRR	-5601
OUR	-5602
You	-5603
ape	-5604
aza	-5605
bre	-5606
chy	-5607
cil	-5608
cul	-5609
dor	-5610
een	-5611
elt	-5612
ena	-5613
enh	-5614
enz	-5615
fth	-5616
gen	-5617
gin	-5618
gly	-5619
ics	-5620
idy	-5621
ief	-5622
ims	-5623
int	-5624
iot	-5625
irl	-5626
jar	-5627
laz	-5628
lit	-5629
men	-5630
mir	-5631
mpt	-5632
ndf	-5633
ock	-5634
off	-5635
oms	-5636
oof	-5637
ord	-5638
osc	-5639
pod	-5640
tel	-5641
ude	-5642
ufa	-5643
upe	-5644
uro	-5645
ury	-5646
vet	-5647
vol	-5648
wed	-5649
yot	-5650
zed	-5651
▁25	-5652
▁30	-5653
▁6.	-5654
▁66	-5655
▁BE	-5656
▁BM	-5657
▁DR	-5658
▁Do	-5659
▁Me	-5660
▁Pi	-5661
▁TO	-5662
▁Tr	-5663
▁Ut	-5664
▁af	-5665
▁ic	-5666
▁ru	-5667
▁si	-5668
▁wi	-5669
▁wo	-5670
ARGE	-5671
Also	-5672
Book	-5673
OLOR	-5674
RICK	-5675
Stop	-5676
abil	-5677
aced	-5678
acht	-5679
ados	-5680
ague	-5681
agus	-5682
ahua	-5683
ains	-5684
amas	-5685
ansa	-5686
anse	-5687
apan	-5688
atin	-5689
cake	-5690
coal	-5691
dale	-5692
dant	-5693
dled	-5694
eing	-5695
ello	-5696
etal	-5697
face	-5698
gray	-5699
hift	-5700
hood	-5701
ials	-5702
ican	-5703
imal	-5704
ival	-5705
lish	-5706
lock	-5707
lops	-5708
lymp	-5709
mark	-5710
mble	-5711
more	-5712
nchy	-5713
nses	-5714
nter	-5715
nuts	-5716
oked	-5717
olvo	-5718
otic	-5719
outh	-5720
pain	-5721
park	-5722
pean	-5723
real	-5724
reds	-5725
rict	-5726
roup	-5727
sive	-5728
spit	-5729
ssom	-5730
tere	-5731
trak	-5732
ttes	-5733
ubby	-5734
uffs	-5735
uges	-5736
ures	-5737
usel	-5738
uted	-5739
utes	-5740
vals	-5741
vern	-5742
▁"2"	-5743
▁AIR	-5744
▁Act	-5745
▁Adj	-5746
▁Are	-5747
▁Bro	-5748
▁CON	-5749
▁COW	-5750
▁Cal	-5751
▁Car	-5752
▁Cor	-5753
▁Des	-5754
▁Dis	-5755
▁Don	-5756
▁Ger	-5757
▁Kir	-5758
▁Mac	-5759
▁Mon	-5760
▁Nin	-5761
▁ONE	-5762
▁Pie	-5763
▁Sit	-5764
▁Zoo	-5765
▁ads	-5766
▁ash	-5767
▁ate	-5768
▁awa	-5769
▁bib	-5770
▁bin	-5771
▁cot	-5772
▁dan	-5773
▁def	-5774
▁fog	-5775
▁fry	-5776
▁gal	-5777
▁gri	-5778
▁hue	-5779
▁hun	-5780
▁inj	-5781
▁job	-5782
▁mer	-5783
▁mus	-5784
▁non	-5785
▁raz	-5786
▁ret	-5787
▁rip	-5788
▁sli	-5789
▁son	-5790
▁tit	-5791
▁tro	-5792
▁vit	-5793
▁wil	-5794
Under	-5795
aging	-5796
andex	-5797
anion	-5798
anted	-5799
asant	-5800
ashed	-5801
asteb	-5802
boats	-5803
dated	-5804
ental	-5805
enzas	-5806
eting	-5807
etted	-5808
icles	-5809
idery	-5810
igigs	-5811
ities	-5812
ittle	-5813
kking	-5814
lands	-5815
leece	-5816
letal	-5817
melon	-5818
ondon	-5819
opies	-5820
pants	-5821
phins	-5822
plane	-5823
plish	-5824
ption	-5825
rador	-5826
rella	-5827
sized	-5828
stand	-5829
stick	-5830
tably	-5831
tails	-5832
tendo	-5833
toned	-5834
tting	-5835
ulate	-5836
urple	-5837
using	-5838
veled	-5839
wling	-5840
zzled	-5841
▁Atop	-5842
▁Bank	-5843
▁Dark	-5844
▁Down	-5845
▁Euro	-5846
▁Food	-5847
▁Ford	-5848
▁Grey	-5849
▁High	-5850
▁Keep	-5851
▁MIRR	-5852
▁Navy	-5853
▁OVER	-5854
▁Pole	-5855
▁ROAD	-5856
▁Road	-5857
▁Rust	-5858
▁SIGN	-5859
▁Sand	-5860
▁THEM	-5861
▁WEAR	-5862
▁Wood	-5863
▁ajar	-5864
▁anch	-5865
▁ange	-5866
▁armo	-5867
▁arug	-5868
▁avoc	-5869
▁bend	-5870
▁bout	-5871
▁brat	-5872
▁buck	-5873
▁buid	-5874
▁cane	-5875
▁care	-5876
▁chil	-5877
▁cred	-5878
▁cube	-5879
▁cudd	-5880
▁deli	-5881
▁dens	-5882
▁expl	-5883
▁feat	-5884
▁felt	-5885
▁film	-5886
▁find	-5887
▁fist	-5888
▁font	-5889
▁fres	-5890
▁gift	-5891
▁gone	-5892
▁gour	-5893
▁grab	-5894
▁heel	-5895
▁hits	-5896
▁iced	-5897
▁infl	-5898
▁jack	-5899
▁kept	-5900
▁laps	-5901
▁lave	-5902
▁lear	-5903
▁lens	-5904
▁lion	-5905
▁mack	-5906
▁mail	-5907
▁maps	-5908
▁norm	-5909
▁once	-5910
▁oper	-5911
▁orig	-5912
▁owls	-5913
▁pies	-5914
▁pike	-5915
▁plug	-5916
▁plus	-5917
▁puff	-5918
▁pupp	-5919
▁pure	-5920
▁real	-5921
▁reds	-5922
▁refe	-5923
▁rele	-5924
▁rugs	-5925
▁scra	-5926
▁seam	-5927
▁site	-5928
▁sled	-5929
▁slop	-5930
▁slot	-5931
▁span	-5932
▁stir	-5933
▁sunb	-5934
▁surp	-5935
▁swab	-5936
▁swan	-5937
▁tass	-5938
▁teac	-5939
▁thee	-5940
▁tide	-5941
▁tidy	-5942
▁toes	-5943
▁tone	-5944
▁tram	-5945
▁wand	-5946
▁weed	-5947
▁west	-5948
ackers	-5949
cturer	-5950
curity	-5951
houses	-5952
huahua	-5953
ifully	-5954
ightse	-5955
iments	-5956
insula	-5957
isters	-5958
isting	-5959
istory	-5960
lympic	-5961
nished	-5962
rioles	-5963
spital	-5964
tainly	-5965
ulated	-5966
venile	-5967
weight	-5968
▁BRICK	-5969
▁BUILD	-5970
▁Bicyc	-5971
▁COLOR	-5972
▁Canad	-5973
▁Chase	-5974
▁Close	-5975
▁Delta	-5976
▁Field	-5977
▁Group	-5978
▁LARGE	-5979
▁Lamps	-5980
▁Lufth	-5981
▁Motor	-5982
▁Pizza	-5983
▁Right	-5984
▁SHELF	-5985
▁Signs	-5986
▁South	-5987
▁Thick	-5988
▁WATCH	-5989
▁Young	-5990
▁Zebra	-5991
▁align	-5992
▁angry	-5993
▁asian	-5994
▁aspar	-5995
▁badly	-5996
▁barbe	-5997
▁barge	-5998
▁barre	-5999
▁bases	-6000
▁basin	-6001
▁beads	-6002
▁belts	-6003
▁blunt	-6004
▁bolts	-6005
▁broad	-6006
▁broom	-6007
▁cable	-6008
▁chess	-6009
▁claim	-6010
▁clust	-6011
▁coach	-6012
▁conif	-6013
▁copse	-6014
▁crash	-6015
▁crate	-6016
▁cubes	-6017
▁demol	-6018
▁dryer	-6019
▁dying	-6020
▁flank	-6021
▁flops	-6022
▁flour	-6023
▁fusel	-6024
▁games	-6025
▁gated	-6026
▁geese	-6027
▁grape	-6028
▁hairs	-6029
▁hedge	-6030
▁heels	-6031
▁herbs	-6032
▁invol	-6033
▁jewel	-6034
▁keeps	-6035
▁limbs	-6036
▁limes	-6037
▁logos	-6038
▁loose	-6039
▁lunch	-6040
▁males	-6041
▁masks	-6042
▁mason	-6043
▁meals	-6044
▁moped	-6045
▁opens	-6046
▁pairs	-6047
▁pengu	-6048
▁pilot	-6049
▁pines	-6050
▁plank	-6051
▁plaza	-6052
▁reeds	-6053
▁roads	-6054
▁santa	-6055
▁screw	-6056
▁scrub	-6057
▁sells	-6058
▁seper	-6059
▁sepia	-6060
▁shack	-6061
▁ships	-6062
▁slabs	-6063
▁squee	-6064
▁stamp	-6065
▁state	-6066
▁stunt	-6067
▁super	-6068
▁taped	-6069
▁tarps	-6070
▁think	-6071
▁toned	-6072
▁tools	-6073
▁tufts	-6074
▁turns	-6075
▁typew	-6076
▁vivid	-6077
▁waits	-6078
▁waste	-6079
▁weigh	-6080
▁whale	-6081
▁whirl	-6082
▁whose	-6083
▁windy	-6084
▁wines	-6085
▁wipes	-6086
▁yacht	-6087
apanese	-6088
ificial	-6089
painted	-6090
posable	-6091
ription	-6092
risbees	-6093
versity	-6094
▁Bright	-6095
▁Donuts	-6096
▁Dunkin	-6097
▁Horses	-6098
▁Laying	-6099
▁Leaves	-6100
▁Little	-6101
▁London	-6102
▁Pieces	-6103
▁babies	-6104
▁backed	-6105
▁bagels	-6106
▁bluish	-6107
▁booths	-6108
▁bumper	-6109
▁burner	-6110
▁cactus	-6111
▁casing	-6112
▁casted	-6113
▁cereal	-6114
▁cheeks	-6115
▁chubby	-6116
▁circus	-6117
▁closes	-6118
▁cloths	-6119
▁cocked	-6120
▁collie	-6121
▁column	-6122
▁contro	-6123
▁conver	-6124
▁copper	-6125
▁corded	-6126
▁corral	-6127
▁cranes	-6128
▁creamy	-6129
▁create	-6130
▁crests	-6131
▁cutout	-6132
▁driven	-6133
▁drying	-6134
▁duffle	-6135
▁exotic	-6136
▁fading	-6137
▁fedora	-6138
▁fitted	-6139
▁flames	-6140
▁fleece	-6141
▁flight	-6142
▁fluore	-6143
▁folder	-6144
▁fronds	-6145
▁gauges	-6146
▁gently	-6147
▁gloved	-6148
▁goalie	-6149
▁govern	-6150
▁grandf	-6151
▁growth	-6152
▁hangar	-6153
▁herded	-6154
▁hinges	-6155
▁hooked	-6156
▁hooves	-6157
▁intere	-6158
▁khakis	-6159
▁layers	-6160
▁league	-6161
▁lenses	-6162
▁levels	-6163
▁linked	-6164
▁loaded	-6165
▁looked	-6166
▁lounge	-6167
▁magnet	-6168
▁manufa	-6169
▁marina	-6170
▁mashed	-6171
▁mature	-6172
▁midair	-6173
▁minute	-6174
▁mitten	-6175
▁mounds	-6176
▁native	-6177
▁parade	-6178
▁patchy	-6179
▁perked	-6180
▁plains	-6181
▁powder	-6182
▁relish	-6183
▁ridged	-6184
▁rowing	-6185
▁sauces	-6186
▁screws	-6187
▁serves	-6188
▁shaved	-6189
▁shovel	-6190
▁siding	-6191
▁signif	-6192
▁skirts	-6193
▁slates	-6194
▁sloped	-6195
▁socket	-6196
▁spring	-6197
▁squats	-6198
▁straws	-6199
▁stubby	-6200
▁swings	-6201
▁swirls	-6202
▁teapot	-6203
▁tented	-6204
▁underw	-6205
▁violin	-6206
▁washer	-6207
▁wasteb	-6208
▁webbed	-6209
▁wrists	-6210
▁writer	-6211
Directly	-6212
▁African	-6213
▁English	-6214
▁Farther	-6215
▁Glasses	-6216
▁HOLDING	-6217
▁Seagull	-6218
▁Seattle	-6219
▁Sitting	-6220
▁WALKING	-6221
▁WEARING	-6222
▁alcohol	-6223
▁antenna	-6224
▁backing	-6225
▁bandana	-6226
▁beaming	-6227
▁bearing	-6228
▁belongs	-6229
▁biscuit	-6230
▁blocked	-6231
▁blossom	-6232
▁breaded	-6233
▁brushes	-6234
▁buckets	-6235
▁budding	-6236
▁causing	-6237
▁caution	-6238
▁chained	-6239
▁chariot	-6240
▁chewing	-6241
▁coaster	-6242
▁complex	-6243
▁convers	-6244
▁coolers	-6245
▁corners	-6246
▁crooked	-6247
▁cropped	-6248
▁dancing	-6249
▁densely	-6250
▁descent	-6251
▁drizzle	-6252
▁encased	-6253
▁exhibit	-6254
▁expanse	-6255
▁festive	-6256
▁fighter	-6257
▁flannel	-6258
▁focuses	-6259
▁folding	-6260
▁greyish	-6261
▁grocery	-6262
▁haircut	-6263
▁handing	-6264
▁housing	-6265
▁hubcaps	-6266
▁hunched	-6267
▁intense	-6268
▁jutting	-6269
▁keeping	-6270
▁kissing	-6271
▁knitted	-6272
▁layered	-6273
▁leaping	-6274
▁lending	-6275
▁leopard	-6276
▁leveled	-6277
▁lockers	-6278
▁marking	-6279
▁necktie	-6280
▁notices	-6281
▁outlets	-6282
▁outward	-6283
▁overloo	-6284
▁paneled	-6285
▁pinkish	-6286
▁product	-6287
▁reaches	-6288
▁reflect	-6289
▁regular	-6290
▁remains	-6291
▁ribbons	-6292
▁roaster	-6293
▁runways	-6294
▁sailing	-6295
▁scrubby	-6296
▁seeming	-6297
▁servers	-6298
▁skinned	-6299
▁slanted	-6300
▁slatted	-6301
▁slicing	-6302
▁spandex	-6303
▁stating	-6304
▁stemmed	-6305
▁sunrise	-6306
▁tattoos	-6307
▁terrace	-6308
▁theater	-6309
▁tightly	-6310
▁tractor	-6311
▁twisted	-6312
▁verdant	-6313
▁viewing	-6314
▁warning	-6315
▁washing	-6316
▁workout	-6317
▁wrinkly	-6318
ification	-6319
struction	-6320
▁Adjacent	-6321
▁Bicycles	-6322
▁European	-6323
▁Nintendo	-6324
▁actually	-6325
▁airfield	-6326
▁allowing	-6327
▁avocados	-6328
▁backyard	-6329
▁baseline	-6330
▁bindings	-6331
▁blacktop	-6332
▁blenders	-6333
▁breaking	-6334
▁bulletin	-6335
▁canopies	-6336
▁catchers	-6337
▁charcoal	-6338
▁cheering	-6339
▁cheetahs	-6340
▁crawling	-6341
▁creature	-6342
▁darkness	-6343
▁decorate	-6344
▁delicate	-6345
▁describe	-6346
▁district	-6347
▁dolphins	-6348
▁dressers	-6349
▁dripping	-6350
▁drizzled	-6351
▁encloses	-6352
▁envelope	-6353
▁facility	-6354
▁fastened	-6355
▁festival	-6356
▁figurine	-6357
▁footpath	-6358
▁frisbees	-6359
▁function	-6360
▁fuselage	-6361
▁handmade	-6362
▁hospital	-6363
▁juvenile	-6364
▁lavender	-6365
▁learning	-6366
▁lounging	-6367
▁meatball	-6368
▁muscular	-6369
▁numbered	-6370
▁opposing	-6371
▁outdated	-6372
▁outfield	-6373
▁pitching	-6374
▁planters	-6375
▁pleasant	-6376
▁polished	-6377
▁portable	-6378
▁purplish	-6379
▁raincoat	-6380
▁recorder	-6381
▁security	-6382
▁showroom	-6383
▁smelling	-6384
▁software	-6385
▁speakers	-6386
▁streamer	-6387
▁studying	-6388
▁suburban	-6389
▁swimsuit	-6390
▁teenager	-6391
▁trekking	-6392
▁waterway	-6393
▁wetsuits	-6394
▁wireless	-6395
▁yellowed	-6396
Underneath	-6397
▁BUILDINGS	-6398
▁Lufthansa	-6399
▁according	-6400
▁adjusting	-6401
▁appliance	-6402
▁asparagus	-6403
▁attending	-6404
▁baseballs	-6405
▁boardwalk	-6406
▁bracelets	-6407
▁briefcase	-6408
▁butterfly	-6409
▁carpeting	-6410
▁carriages	-6411
▁certainly	-6412
▁chestnuts	-6413
▁chihuahua	-6414
▁companion	-6415
▁completed	-6416
▁condiment	-6417
▁credenzas	-6418
▁dandelion	-6419
▁determine	-6420
▁enclosing	-6421
▁flagpoles	-6422
▁flowering	-6423
▁keyboards	-6424
▁listening	-6425
▁magazines	-6426
▁makeshift	-6427
▁mechanism	-6428
▁necklaces	-6429
▁officials	-6430
▁onlookers	-6431
▁peninsula	-6432
▁perfectly	-6433
▁pineapple	-6434
▁plantains	-6435
▁presented	-6436
▁skatepark	-6437
▁spectator	-6438
▁sprinkler	-6439
▁stoplight	-6440
▁stretches	-6441
▁surprised	-6442
▁therefore	-6443
▁unpainted	-6444
▁warehouse	-6445
▁waterfall	-6446
▁watermark	-6447
▁apparently	-6448
▁appearance	-6449
▁artificial	-6450
▁attachment	-6451
▁belongings	-6452
▁chalkboard	-6453
▁cigarettes	-6454
▁coniferous	-6455
▁connecting	-6456
▁croissants	-6457
▁dandelions	-6458
▁demolished	-6459
▁discolored	-6460
▁disposable	-6461
▁embroidery	-6462
▁florescent	-6463
▁formations	-6464
▁government	-6465
▁grasslands	-6466
▁maintained	-6467
▁overweight	-6468
▁pepperonis	-6469
▁pineapples	-6470
▁seasonings	-6471
▁toothpaste	-6472
▁watermelon	-6473
▁whirligigs	-6474
▁beautifully	-6475
▁butterflies	-6476
▁comfortably	-6477
▁contraption	-6478
▁electronics	-6479
▁fluorescent	-6480
▁grandfather	-6481
▁silhouetted	-6482
▁tablecloths	-6483
▁wastebasket	-6484
▁conversation	-6485
▁interspersed	-6486
▁manufacturer	-6487
▁neighborhood	-6488
▁photographed	-6489
▁presentation	-6490
▁transporting	-6491
▁wakeboarding	-6492
▁concentration	-6493
▁predominately	-6494
▁skateboarders	-6495
▁identification	-6496
As	-6497
PH	-6498
SS	-6499
52	-6500
SX	-6501
ga	-6502
rm	-6503
...	-6504
:00	-6505
ALS	-6506
ANA	-6507
ANG	-6508
ART	-6509
BUS	-6510
EEN	-6511
ENN	-6512
ENT	-6513
ETW	-6514
FIT	-6515
HES	-6516
IED	-6517
IME	-6518
IND	-6519
IST	-6520
NIM	-6521
Not	-6522
OKS	-6523
ORT	-6524
TED	-6525
UMB	-6526
UTI	-6527
WAY	-6528
abs	-6529
acb	-6530
cho	-6531
chs	-6532
cue	-6533
dom	-6534
gem	-6535
hog	-6536
ica	-6537
ios	-6538
irm	-6539
ize	-6540
kno	-6541
lue	-6542
olk	-6543
ope	-6544
psi	-6545
rig	-6546
sal	-6547
vil	-6548
you	-6549
▁17	-6550
▁24	-6551
▁27	-6552
▁28	-6553
▁31	-6554
▁3:	-6555
▁68	-6556
▁92	-6557
▁AC	-6558
▁Al	-6559
▁Gi	-6560
▁HA	-6561
▁If	-6562
▁Im	-6563
▁Jo	-6564
▁Li	-6565
▁RD	-6566
▁RH	-6567
▁RV	-6568
▁Sc	-6569
▁Sp	-6570
▁UP	-6571
▁UR	-6572
▁XL	-6573
▁dv	-6574
Blue	-6575
FREE	-6576
INER	-6577
LEPH	-6578
OMAN	-6579
OUNG	-6580
REEN	-6581
REES	-6582
THEY	-6583
WALK	-6584
YING	-6585
abst	-6586
aily	-6587
aten	-6588
aven	-6589
bobs	-6590
bogg	-6591
cret	-6592
dued	-6593
elly	-6594
erel	-6595
eria	-6596
erns	-6597
esel	-6598
fash	-6599
),	-6600
25	-6601
57	-6602
8.	-6603
:4	-6604
Ex	-6605
TO	-6606
cs	-6607
cu	-6608
hn	-6609
ww	-6610
zy	-6611
▁'	-6612
▁0	-6613
08.	-6614
ARE	-6615
ONT	-6616
OTO	-6617
amm	-6618
esm	-6619
ien	-6620
jut	-6621
leg	-6622
nas	-6623
ove	-6624
wir	-6625
▁pr	-6626
HOTO	-6627
This	-6628
alan	-6629
cers	-6630
cuss	-6631
esus	-6632
fron	-6633
gged	-6634
iber	-6635
ikes	-6636
iosk	-6637
itts	-6638
ivel	-6639
jabs	-6640
knob	-6641
lded	-6642
list	-6643
lleg	-6644
lors	-6645
mail	-6646
mock	-6647
ndar	-6648
ndom	-6649
nedy	-6650
olle	-6651
omas	-6652
omed	-6653
once	-6654
onge	-6655
oofy	-6656
pids	-6657
pite	-6658
pole	-6659
rail	-6660
rreg	-6661
site	-6662
tips	-6663
ucch	-6664
ucco	-6665
ungy	-6666
unky	-6667
vive	-6668
west	-6669
zens	-6670
▁"10	-6671
▁"43	-6672
▁183	-6673
▁198	-6674
▁200	-6675
▁50'	-6676
▁7:3	-6677
▁BMW	-6678
▁Bag	-6679
▁Bor	-6680
▁Bri	-6681
▁COM	-6682
▁CSX	-6683
▁DES	-6684
▁Dav	-6685
▁FOR	-6686
▁Fly	-6687
▁GIR	-6688
▁HAT	-6689
▁HER	-6690
▁Har	-6691
▁LAY	-6692
▁LED	-6693
▁LOG	-6694
▁LOO	-6695
▁Lab	-6696
▁Lap	-6697
▁Loo	-6698
▁McC	-6699
).	-6700
AM	-6701
At	-6702
BO	-6703
EW	-6704
It	-6705
TC	-6706
gn	-6707
ok	-6708
oy	-6709
ux	-6710
Dog	-6711
End	-6712
IEW	-6713
car	-6714
net	-6715
orn	-6716
yed	-6717
▁40	-6718
▁Ne	-6719
medi	-6720
oded	-6721
ound	-6722
poss	-6723
resh	-6724
▁POM	-6725
▁Pho	-6726
▁Rac	-6727
▁SUR	-6728
▁Sep	-6729
▁TRA	-6730
▁Tea	-6731
▁Vir	-6732
▁bru	-6733
▁did	-6734
▁dil	-6735
▁dip	-6736
▁dvd	-6737
▁dye	-6738
▁ecl	-6739
▁exc	-6740
▁fli	-6741
▁got	-6742
▁gym	-6743
▁hex	-6744
▁inb	-6745
▁ivy	-6746
▁lea	-6747
▁lux	-6748
▁mis	-6749
▁mun	-6750
▁nam	-6751
▁nur	-6752
▁pis	-6753
▁pou	-6754
▁ras	-6755
▁rib	-6756
▁ros	-6757
▁rye	-6758
▁sco	-6759
▁tap	-6760
▁ton	-6761
▁unb	-6762
▁woo	-6763
▁yog	-6764
ENNIS	-6765
INDOW	-6766
ORSES	-6767
adise	-6768
aired	-6769
amese	-6770
arest	-6771
asser	-6772
aston	-6773
ayers	-6774
bikes	-6775
black	-6776
cades	-6777
cheme	-6778
chsia	-6779
clear	-6780
elope	-6781
erien	-6782
esame	-6783
estri	-6784
estry	-6785
etary	-6786
flops	-6787
gency	-6788
icirc	-6789
idson	-6790
iffle	-6791
iggly	-6792
igree	-6793
irmly	-6794
itive	-6795
itude	-6796
jamas	-6797
kempt	-6798
kirts	-6799
91	-6800
AA	-6801
Co	-6802
XL	-6803
ox	-6804
ILL	-6805
Mic	-6806
OUS	-6807
Old	-6808
alo	-6809
inn	-6810
rer	-6811
rup	-6812
shm	-6813
tor	-6814
uma	-6815
van	-6816
▁16	-6817
▁AL	-6818
▁CD	-6819
▁HE	-6820
▁er	-6821
▁ir	-6822
▁oo	-6823
▁ox	-6824
▁py	-6825
airs	-6826
asts	-6827
iant	-6828
ilts	-6829
lons	-6830
ties	-6831
yota	-6832
▁San	-6833
▁Ten	-6834
▁bee	-6835
▁bob	-6836
▁hop	-6837
▁lat	-6838
aming	-6839
known	-6840
loupe	-6841
mates	-6842
ncing	-6843
older	-6844
ompan	-6845
osaur	-6846
paned	-6847
quats	-6848
ramed	-6849
reeze	-6850
rests	-6851
rices	-6852
riter	-6853
rowds	-6854
scape	-6855
serts	-6856
sings	-6857
style	-6858
tower	-6859
uburn	-6860
uette	-6861
umber	-6862
unger	-6863
vetop	-6864
while	-6865
▁2010	-6866
▁ANIM	-6867
▁Bist	-6868
▁Boat	-6869
▁Cali	-6870
▁Fire	-6871
▁HANG	-6872
▁HAVE	-6873
▁HOUR	-6874
▁John	-6875
▁Kans	-6876
▁King	-6877
▁LAND	-6878
▁MANY	-6879
▁Norm	-6880
▁PARK	-6881
▁Palm	-6882
▁Park	-6883
▁Pena	-6884
▁Pine	-6885
▁Rail	-6886
▁SAIL	-6887
▁Sams	-6888
▁Slic	-6889
▁Span	-6890
▁TAIL	-6891
▁THEY	-6892
▁TIME	-6893
▁TREE	-6894
▁West	-6895
▁Wils	-6896
▁With	-6897
▁able	-6898
▁adjo	-6899
BR	-6900
PL	-6901
sk	-6902
30"	-6903
Far	-6904
asy	-6905
aus	-6906
ero	-6907
fas	-6908
kea	-6909
len	-6910
met	-6911
▁50	-6912
▁52	-6913
quit	-6914
rimp	-6915
zone	-6916
▁276	-6917
▁Peb	-6918
▁cri	-6919
▁dos	-6920
▁fox	-6921
▁ful	-6922
▁ink	-6923
▁inl	-6924
▁ori	-6925
▁plo	-6926
ality	-6927
inger	-6928
night	-6929
oring	-6930
outhe	-6931
▁BETW	-6932
▁Here	-6933
▁WALL	-6934
▁York	-6935
▁beat	-6936
▁blem	-6937
▁bobb	-6938
▁buds	-6939
▁came	-6940
▁cash	-6941
▁clow	-6942
▁club	-6943
▁cobs	-6944
▁coin	-6945
▁conf	-6946
▁coop	-6947
▁dalm	-6948
▁damp	-6949
▁dash	-6950
▁days	-6951
▁dear	-6952
▁defe	-6953
▁disk	-6954
▁drop	-6955
▁dump	-6956
▁emer	-6957
▁espe	-6958
▁fier	-6959
▁fill	-6960
▁flan	-6961
▁flys	-6962
▁foal	-6963
▁furt	-6964
▁gest	-6965
▁give	-6966
▁glim	-6967
▁glue	-6968
▁grim	-6969
▁hint	-6970
▁hipp	-6971
▁hist	-6972
▁hoof	-6973
▁hund	-6974
▁inch	-6975
▁insc	-6976
▁ipod	-6977
▁isol	-6978
▁kale	-6979
▁know	-6980
▁lets	-6981
▁loop	-6982
▁lusc	-6983
▁macb	-6984
▁mayo	-6985
▁mean	-6986
▁mold	-6987
▁nick	-6988
▁nook	-6989
▁page	-6990
▁para	-6991
▁prim	-6992
▁quic	-6993
▁raod	-6994
▁rasp	-6995
▁rays	-6996
▁reco	-6997
▁rema	-6998
▁reve	-6999
.,	-7000
Sh	-7001
ik	-7002
gie	-7003
ply	-7004
tim	-7005
▁13	-7006
▁Ba	-7007
▁SS	-7008
▁Si	-7009
amin	-7010
ampa	-7011
apid	-7012
ayed	-7013
hels	-7014
imer	-7015
inct	-7016
inge	-7017
oney	-7018
rout	-7019
rung	-7020
usks	-7021
zzly	-7022
▁60.	-7023
▁May	-7024
▁Pap	-7025
▁dam	-7026
▁fou	-7027
▁kum	-7028
▁try	-7029
▁twe	-7030
▁yge	-7031
andal	-7032
esmar	-7033
indle	-7034
pples	-7035
stove	-7036
wered	-7037
▁Baby	-7038
▁Coke	-7039
▁Side	-7040
▁drum	-7041
▁lant	-7042
▁mast	-7043
▁peak	-7044
▁poll	-7045
▁role	-7046
▁root	-7047
▁rush	-7048
▁sack	-7049
▁seed	-7050
▁sees	-7051
▁sens	-7052
▁slaw	-7053
▁spac	-7054
▁stit	-7055
▁stur	-7056
▁suds	-7057
▁sure	-7058
▁sway	-7059
▁tang	-7060
▁tear	-7061
▁thro	-7062
▁tool	-7063
▁toss	-7064
▁tote	-7065
▁trey	-7066
▁tuna	-7067
▁turf	-7068
▁unpa	-7069
▁unpe	-7070
▁unus	-7071
▁uses	-7072
▁waxy	-7073
▁whom	-7074
▁wint	-7075
▁yolk	-7076
▁your	-7077
▁zero	-7078
LEPHAN	-7079
TAINER	-7080
aining	-7081
alator	-7082
allard	-7083
allets	-7084
atable	-7085
atever	-7086
atting	-7087
avored	-7088
bbling	-7089
boggan	-7090
buttel	-7091
cerned	-7092
cially	-7093
comfor	-7094
cycled	-7095
cycles	-7096
dering	-7097
ellies	-7098
elloph	-7099
IRT	-7100
cky	-7101
pad	-7102
apph	-7103
cage	-7104
enta	-7105
hell	-7106
ouse	-7107
pink	-7108
▁Ken	-7109
▁Sky	-7110
▁deg	-7111
▁hol	-7112
▁zom	-7113
berty	-7114
enham	-7115
lover	-7116
orang	-7117
▁DARK	-7118
▁Mane	-7119
▁Pres	-7120
▁Upon	-7121
▁bump	-7122
▁chip	-7123
▁coke	-7124
▁cuts	-7125
▁fern	-7126
▁gang	-7127
▁nach	-7128
▁sock	-7129
▁sunf	-7130
▁thus	-7131
▁unop	-7132
▁veil	-7133
cheted	-7134
erness	-7135
fronts	-7136
gemite	-7137
headed	-7138
icipal	-7139
icking	-7140
ifying	-7141
igator	-7142
ildren	-7143
illowy	-7144
ingled	-7145
ipples	-7146
itical	-7147
length	-7148
miring	-7149
ndance	-7150
ntiful	-7151
ometer	-7152
papers	-7153
riever	-7154
ructor	-7155
ruders	-7156
screen	-7157
semble	-7158
stairs	-7159
stands	-7160
uggled	-7161
umably	-7162
vilion	-7163
wnings	-7164
▁Ahead	-7165
▁BEING	-7166
▁BOOKS	-7167
▁Based	-7168
▁Beige	-7169
▁Brick	-7170
▁Cloud	-7171
▁Coach	-7172
▁Coast	-7173
▁Domin	-7174
▁Elect	-7175
▁FRONT	-7176
▁First	-7177
▁Flags	-7178
▁GRASS	-7179
▁GREEN	-7180
▁Gmail	-7181
▁Great	-7182
▁Hills	-7183
▁Items	-7184
▁Jesus	-7185
▁Kites	-7186
▁Latin	-7187
▁Leeds	-7188
▁Looks	-7189
▁McFar	-7190
▁Metal	-7191
▁North	-7192
▁Oppos	-7193
▁PHOTO	-7194
▁Parts	-7195
▁READS	-7196
▁REINS	-7197
▁Rocks	-7198
▁Santa	-7199
DR	-7200
no	-7201
dry	-7202
erk	-7203
tol	-7204
ugs	-7205
▁PR	-7206
amel	-7207
arms	-7208
down	-7209
dust	-7210
rast	-7211
tact	-7212
tern	-7213
▁"21	-7214
▁Bra	-7215
▁CAR	-7216
▁Pan	-7217
▁Ped	-7218
▁Spl	-7219
▁cem	-7220
▁gun	-7221
▁mov	-7222
▁poo	-7223
▁seg	-7224
arter	-7225
ckled	-7226
dress	-7227
dryer	-7228
ecker	-7229
rasts	-7230
ssels	-7231
tures	-7232
▁Ange	-7233
▁Anim	-7234
▁Fans	-7235
▁Jack	-7236
▁Mets	-7237
▁Past	-7238
▁Stra	-7239
▁bunk	-7240
▁butt	-7241
▁coca	-7242
▁cowl	-7243
▁fart	-7244
▁feel	-7245
▁pita	-7246
▁repl	-7247
Americ	-7248
estern	-7249
formed	-7250
▁Sharp	-7251
▁Shelf	-7252
▁Starb	-7253
▁TRACK	-7254
▁TRAIN	-7255
▁TREES	-7256
▁Table	-7257
▁Tampa	-7258
▁Those	-7259
▁Times	-7260
▁Union	-7261
▁Volvo	-7262
▁YOUNG	-7263
▁actor	-7264
▁adorn	-7265
▁amuse	-7266
▁angel	-7267
▁appet	-7268
▁arena	-7269
▁aside	-7270
▁attra	-7271
▁award	-7272
▁basil	-7273
▁beers	-7274
▁bites	-7275
▁bound	-7276
▁boxed	-7277
▁braid	-7278
▁breed	-7279
▁brook	-7280
▁bulld	-7281
▁canal	-7282
▁cause	-7283
▁clack	-7284
▁cloak	-7285
▁clown	-7286
▁coals	-7287
▁coast	-7288
▁crazy	-7289
▁crock	-7290
▁crows	-7291
▁cuffs	-7292
▁curio	-7293
▁cycle	-7294
▁decal	-7295
▁depar	-7296
▁docks	-7297
▁dolls	-7298
▁domed	-7299
ara	-7300
kay	-7301
▁Cl	-7302
▁FA	-7303
▁Fa	-7304
bull	-7305
coll	-7306
espa	-7307
idas	-7308
ipes	-7309
lers	-7310
mber	-7311
rote	-7312
type	-7313
ught	-7314
umed	-7315
vity	-7316
▁Flo	-7317
▁Mar	-7318
▁Per	-7319
▁Way	-7320
▁pig	-7321
hener	-7322
lings	-7323
oscow	-7324
uffed	-7325
urger	-7326
▁Port	-7327
▁Well	-7328
▁Wild	-7329
▁bats	-7330
▁camo	-7331
▁fins	-7332
▁jous	-7333
▁mull	-7334
▁pets	-7335
▁prom	-7336
▁virt	-7337
hogany	-7338
ughing	-7339
▁Vespa	-7340
▁WOMAN	-7341
▁Waves	-7342
▁bunny	-7343
▁canta	-7344
▁cheek	-7345
▁chees	-7346
▁cubby	-7347
▁dials	-7348
▁drums	-7349
▁ducky	-7350
▁eater	-7351
▁expos	-7352
▁fades	-7353
▁faint	-7354
▁fatig	-7355
▁fiber	-7356
▁fifth	-7357
▁fills	-7358
▁final	-7359
▁flaps	-7360
▁flash	-7361
▁flows	-7362
▁fluid	-7363
▁forms	-7364
▁fours	-7365
▁frown	-7366
▁gifts	-7367
▁given	-7368
▁goofy	-7369
▁goose	-7370
▁gradu	-7371
▁grate	-7372
▁gravy	-7373
▁greys	-7374
▁grind	-7375
▁guide	-7376
▁harsh	-7377
▁heals	-7378
▁helps	-7379
▁heron	-7380
▁hippo	-7381
▁honey	-7382
▁hutch	-7383
▁illeg	-7384
▁immac	-7385
▁irreg	-7386
▁judge	-7387
▁jumps	-7388
▁kajut	-7389
▁kiosk	-7390
▁knick	-7391
▁laced	-7392
▁lacks	-7393
▁leaps	-7394
▁lobby	-7395
▁local	-7396
▁magic	-7397
▁mangy	-7398
▁medal	-7399
opus	-7400
▁meets	-7401
▁menus	-7402
▁midst	-7403
▁minor	-7404
▁mitts	-7405
▁mixer	-7406
▁modem	-7407
▁mossy	-7408
▁motif	-7409
▁moves	-7410
▁music	-7411
▁names	-7412
▁north	-7413
▁often	-7414
▁orang	-7415
▁ovens	-7416
▁owner	-7417
▁packs	-7418
▁palms	-7419
▁pared	-7420
▁patty	-7421
▁pears	-7422
▁peeks	-7423
▁pepsi	-7424
▁petal	-7425
▁plots	-7426
▁pools	-7427
▁posed	-7428
▁pract	-7429
▁price	-7430
▁prist	-7431
▁prong	-7432
▁pumps	-7433
▁radio	-7434
▁ranch	-7435
▁raven	-7436
▁razor	-7437
▁recei	-7438
▁ridge	-7439
▁rooft	-7440
▁rooms	-7441
▁roots	-7442
▁rough	-7443
▁scall	-7444
▁share	-7445
▁shark	-7446
▁skiis	-7447
▁skull	-7448
▁sleek	-7449
▁smirk	-7450
▁sofas	-7451
▁spool	-7452
▁spout	-7453
▁staff	-7454
▁stake	-7455
▁stalk	-7456
▁start	-7457
▁steed	-7458
▁stock	-7459
▁surfs	-7460
▁swath	-7461
▁swirl	-7462
▁syrup	-7463
▁tanks	-7464
▁theme	-7465
▁therm	-7466
▁thirt	-7467
▁ticks	-7468
▁tides	-7469
▁tiers	-7470
▁times	-7471
▁tinge	-7472
▁tones	-7473
▁treat	-7474
▁tress	-7475
▁tries	-7476
▁unbut	-7477
▁unfin	-7478
▁unlit	-7479
▁viole	-7480
▁visib	-7481
▁wheat	-7482
▁whims	-7483
▁wider	-7484
▁windm	-7485
▁winds	-7486
▁wiper	-7487
▁withe	-7488
▁works	-7489
▁world	-7490
▁worth	-7491
▁zucch	-7492
abilize	-7493
ankment	-7494
apphire	-7495
aration	-7496
atively	-7497
breaker	-7498
ctively	-7499
culator	-7500
fficult	-7501
lazoned	-7502
ossible	-7503
otional	-7504
rossing	-7505
taining	-7506
tlement	-7507
venient	-7508
viously	-7509
▁AIRBUS	-7510
▁Before	-7511
▁Bistro	-7512
▁Cement	-7513
▁Closer	-7514
▁Crowds	-7515
▁Dishes	-7516
▁Fluffy	-7517
▁Flying	-7518
▁German	-7519
▁Giants	-7520
▁HOLDER	-7521
▁HORSES	-7522
▁Harley	-7523
▁INSIDE	-7524
▁Kansas	-7525
▁Laptop	-7526
▁McCain	-7527
▁Moscow	-7528
▁Mostly	-7529
▁OUTFIT	-7530
▁Others	-7531
▁Purple	-7532
▁Racism	-7533
▁Rather	-7534
▁Riding	-7535
▁States	-7536
▁TENNIS	-7537
▁Thames	-7538
▁Thomas	-7539
▁Toyota	-7540
▁Tracks	-7541
▁Trains	-7542
▁Virgin	-7543
▁WINDOW	-7544
▁Wilson	-7545
▁Within	-7546
▁Zebras	-7547
▁aboard	-7548
▁accent	-7549
▁acting	-7550
▁action	-7551
▁allows	-7552
▁almond	-7553
▁ankles	-7554
▁auburn	-7555
▁barren	-7556
▁become	-7557
▁biking	-7558
▁biting	-7559
▁blacks	-7560
▁blooms	-7561
▁boiled	-7562
▁bolted	-7563
▁boxing	-7564
▁braids	-7565
▁breaks	-7566
▁breath	-7567
▁breeze	-7568
▁browns	-7569
▁buckle	-7570
▁burger	-7571
▁busses	-7572
▁calves	-7573
▁camels	-7574
▁canoes	-7575
▁carton	-7576
▁casser	-7577
▁cattle	-7578
▁caught	-7579
▁causes	-7580
▁choker	-7581
▁circum	-7582
▁clause	-7583
▁cliffs	-7584
▁contin	-7585
▁cotton	-7586
▁courts	-7587
▁crowns	-7588
▁crusts	-7589
▁crusty	-7590
▁cutter	-7591
▁cylind	-7592
▁darkly	-7593
▁detail	-7594
▁diesel	-7595
▁dimens	-7596
▁diners	-7597
▁dipped	-7598
▁dollop	-7599
▁droopy	-7600
▁eclair	-7601
▁edging	-7602
▁edible	-7603
▁expose	-7604
▁facade	-7605
▁farmer	-7606
▁finish	-7607
▁firmly	-7608
▁flavor	-7609
▁fluted	-7610
▁fronts	-7611
▁frosty	-7612
▁gaiter	-7613
▁gallop	-7614
▁gather	-7615
▁gender	-7616
▁ginger	-7617
▁gotten	-7618
▁gourds	-7619
▁grease	-7620
▁greasy	-7621
▁grungy	-7622
▁guards	-7623
▁hamper	-7624
▁hanger	-7625
▁hatbox	-7626
▁heeled	-7627
▁hijabs	-7628
▁hiking	-7629
▁hooded	-7630
▁humans	-7631
▁images	-7632
▁intact	-7633
▁intent	-7634
▁intern	-7635
▁inward	-7636
▁jogger	-7637
▁judges	-7638
▁kabobs	-7639
▁knacks	-7640
▁landed	-7641
▁launch	-7642
▁legged	-7643
▁livery	-7644
▁locked	-7645
▁lovely	-7646
▁makers	-7647
▁makeup	-7648
▁marked	-7649
▁marque	-7650
▁marshm	-7651
▁matted	-7652
▁median	-7653
▁melons	-7654
▁normal	-7655
▁observ	-7656
▁offset	-7657
▁palace	-7658
▁pallet	-7659
▁parted	-7660
▁passed	-7661
▁paying	-7662
▁peaked	-7663
▁pearls	-7664
▁pencil	-7665
▁picked	-7666
▁pigeon	-7667
▁pinned	-7668
▁pistol	-7669
▁points	-7670
▁poised	-7671
▁polish	-7672
▁pooled	-7673
▁popped	-7674
▁prices	-7675
▁puzzle	-7676
▁quaint	-7677
▁quiche	-7678
▁rained	-7679
▁random	-7680
▁rapids	-7681
▁redish	-7682
▁refuse	-7683
▁region	-7684
▁retail	-7685
▁ripple	-7686
▁rising	-7687
▁rocket	-7688
▁roller	-7689
▁rubble	-7690
▁runner	-7691
▁safari	-7692
▁scarce	-7693
▁scarfs	-7694
▁scheme	-7695
▁scient	-7696
▁sconce	-7697
▁sesame	-7698
▁shaker	-7699
▁shears	-7700
▁shield	-7701
▁shores	-7702
▁should	-7703
▁shrimp	-7704
▁simply	-7705
▁skiier	-7706
▁sleepy	-7707
▁sliver	-7708
▁smoggy	-7709
▁smoked	-7710
▁soaked	-7711
▁southe	-7712
▁spaces	-7713
▁spider	-7714
▁spiked	-7715
▁spikes	-7716
▁spires	-7717
▁sponge	-7718
▁stages	-7719
▁stakes	-7720
▁stilts	-7721
▁strike	-7722
▁strung	-7723
▁stucco	-7724
▁sturdy	-7725
▁tacked	-7726
▁tagged	-7727
▁taping	-7728
▁themed	-7729
▁thinly	-7730
▁tiered	-7731
▁tiling	-7732
▁trough	-7733
▁turmac	-7734
▁underb	-7735
▁unfold	-7736
▁unused	-7737
▁vendor	-7738
▁viewer	-7739
▁violet	-7740
▁walked	-7741
▁warmly	-7742
▁washed	-7743
▁wiffle	-7744
▁wintry	-7745
▁wonder	-7746
▁yogurt	-7747
American	-7748
LEPHANTS	-7749
apidated	-7750
possibly	-7751
reshment	-7752
ressions	-7753
zzarella	-7754
▁ANIMALS	-7755
▁Airways	-7756
▁Animals	-7757
▁BETWEEN	-7758
▁Closest	-7759
▁England	-7760
▁HANGING	-7761
▁Highway	-7762
▁Kitchen	-7763
▁Looking	-7764
▁Luggage	-7765
▁MIRRORS	-7766
▁MacBook	-7767
▁Olympic	-7768
▁Orioles	-7769
▁Players	-7770
▁SMALLER	-7771
▁Samsung	-7772
▁Smaller	-7773
▁Spanish	-7774
▁Utility	-7775
▁Washing	-7776
▁abandon	-7777
▁amounts	-7778
▁armoire	-7779
▁arugula	-7780
▁balloon	-7781
▁banquet	-7782
▁barrels	-7783
▁batters	-7784
▁becomes	-7785
▁billowy	-7786
▁binders	-7787
▁bobbins	-7788
▁bobbles	-7789
▁booties	-7790
▁bottled	-7791
▁brimmed	-7792
▁bubbled	-7793
▁bunting	-7794
▁burning	-7795
▁bushels	-7796
▁calzone	-7797
▁capital	-7798
▁capitol	-7799
▁caramel	-7800
▁carried	-7801
▁celloph	-7802
▁chested	-7803
▁cleated	-7804
▁climate	-7805
▁clipper	-7806
▁closeup	-7807
▁clouded	-7808
▁cluster	-7809
▁coaches	-7810
▁college	-7811
▁command	-7812
▁compass	-7813
▁content	-7814
▁creamer	-7815
▁curious	-7816
▁cursive	-7817
▁defined	-7818
▁degrees	-7819
▁despite	-7820
▁discuss	-7821
▁duckies	-7822
▁dusting	-7823
▁excited	-7824
▁exiting	-7825
▁eyebrow	-7826
▁farmers	-7827
▁feature	-7828
▁filming	-7829
▁finally	-7830
▁flavors	-7831
▁flipped	-7832
▁flooded	-7833
▁foaming	-7834
▁friends	-7835
▁fuchsia	-7836
▁garages	-7837
▁grizzly	-7838
▁groomed	-7839
▁hammock	-7840
▁hotdogs	-7841
▁hutches	-7842
▁indents	-7843
▁jogging	-7844
▁leashes	-7845
▁liberty	-7846
▁lighted	-7847
▁magenta	-7848
▁mailbox	-7849
▁meeting	-7850
▁melting	-7851
▁message	-7852
▁minimal	-7853
▁minivan	-7854
▁molding	-7855
▁monster	-7856
▁narrows	-7857
▁nearest	-7858
▁needles	-7859
▁nestled	-7860
▁numeral	-7861
▁octagon	-7862
▁octopus	-7863
▁organiz	-7864
▁pallets	-7865
▁patched	-7866
▁peaches	-7867
▁penguin	-7868
▁perfect	-7869
▁petting	-7870
▁pigeons	-7871
▁placard	-7872
▁pleated	-7873
▁plunger	-7874
▁prevent	-7875
▁project	-7876
▁protest	-7877
▁puddles	-7878
▁quality	-7879
▁quietly	-7880
▁ranging	-7881
▁recipes	-7882
▁referee	-7883
▁relaxed	-7884
▁ringing	-7885
▁roofing	-7886
▁rushing	-7887
▁service	-7888
▁shading	-7889
▁sightse	-7890
▁signals	-7891
▁signify	-7892
▁singing	-7893
▁smudged	-7894
▁smudges	-7895
▁solider	-7896
▁sorting	-7897
▁spectac	-7898
▁spindle	-7899
▁splayed	-7900
▁sprayed	-7901
▁steamed	-7902
▁storied	-7903
▁strands	-7904
▁streams	-7905
▁subdued	-7906
▁suggest	-7907
▁survive	-7908
▁takeoff	-7909
▁telling	-7910
▁texting	-7911
▁thicket	-7912
▁topless	-7913
▁trapped	-7914
▁unkempt	-7915
▁unknown	-7916
▁	-7917
e	-7918
a	-7919
t	-7920
i	-7921
n	-7922
s	-7923
o	-7924
h	-7925
r	-7926
l	-7927
d	-7928
g	-7929
.	-7930
w	-7931
c	-7932
b	-7933
f	-7934
p	-7935
u	-7936
T	-7937
m	-7938
k	-7939
y	-7940
v	-7941
A	-7942
,	-7943
x	-7944
H	-7945
z	-7946
I	-7947
O	-7948
S	-7949
j	-7950
B	-7951
'	-7952
N	-7953
E	-7954
P	-7955
-	-7956
"	-7957
q	-7958
R	-7959
F	-7960
M	-7961
L	-7962
C	-7963
W	-7964
D	-7965
G	-7966
U	-7967
Y	-7968
V	-7969
1	-7970
2	-7971
0	-7972
K	-7973
5	-7974
3	-7975
4	-7976
8	-7977
7	-7978
J	-7979
6	-7980
9	-7981
/	-7982
:	-7983
;	-7984
X	-7985
(	-7986
Z	-7987
)	-7988
Q	-7989
&	-7990
#	-7991
%	-7992
$	-7993
`	-7994
è	-7995
